{
  "version": "1.0",
  "truncation": null,
  "padding": null,
  "added_tokens": [
    {
      "id": 0,
      "content": "<UNK>",
      "single_word": false,
      "lstrip": false,
      "rstrip": false,
      "normalized": false,
      "special": true
    },
    {
      "id": 1,
      "content": "<PAD>",
      "single_word": false,
      "lstrip": false,
      "rstrip": false,
      "normalized": false,
      "special": true
    }
  ],
  "normalizer": null,
  "pre_tokenizer": {
    "type": "Sequence",
    "pretokenizers": [
      {
        "type": "Whitespace"
      },
      {
        "type": "Punctuation",
        "behavior": "Isolated"
      }
    ]
  },
  "post_processor": null,
  "decoder": null,
  "model": {
    "type": "BPE",
    "dropout": null,
    "unk_token": "<UNK>",
    "continuing_subword_prefix": "##",
    "end_of_word_suffix": null,
    "fuse_unk": false,
    "byte_fallback": false,
    "ignore_merges": false,
    "vocab": {
      "<UNK>": 0,
      "<PAD>": 1,
      "!": 2,
      "\"": 3,
      "#": 4,
      "$": 5,
      "%": 6,
      "&": 7,
      "'": 8,
      "(": 9,
      ")": 10,
      "*": 11,
      "+": 12,
      ",": 13,
      "-": 14,
      ".": 15,
      "/": 16,
      "0": 17,
      "1": 18,
      "2": 19,
      "3": 20,
      "4": 21,
      "5": 22,
      "6": 23,
      "7": 24,
      "8": 25,
      "9": 26,
      ":": 27,
      ";": 28,
      "<": 29,
      "=": 30,
      ">": 31,
      "?": 32,
      "@": 33,
      "A": 34,
      "B": 35,
      "C": 36,
      "D": 37,
      "E": 38,
      "F": 39,
      "G": 40,
      "H": 41,
      "I": 42,
      "J": 43,
      "K": 44,
      "L": 45,
      "M": 46,
      "N": 47,
      "O": 48,
      "P": 49,
      "Q": 50,
      "R": 51,
      "S": 52,
      "T": 53,
      "U": 54,
      "V": 55,
      "W": 56,
      "X": 57,
      "Y": 58,
      "Z": 59,
      "[": 60,
      "\\": 61,
      "]": 62,
      "^": 63,
      "_": 64,
      "`": 65,
      "a": 66,
      "b": 67,
      "c": 68,
      "d": 69,
      "e": 70,
      "f": 71,
      "g": 72,
      "h": 73,
      "i": 74,
      "j": 75,
      "k": 76,
      "l": 77,
      "m": 78,
      "n": 79,
      "o": 80,
      "p": 81,
      "q": 82,
      "r": 83,
      "s": 84,
      "t": 85,
      "u": 86,
      "v": 87,
      "w": 88,
      "x": 89,
      "y": 90,
      "z": 91,
      "|": 92,
      "~": 93,
      "£": 94,
      "©": 95,
      "«": 96,
      "°": 97,
      "²": 98,
      "·": 99,
      "»": 100,
      "×": 101,
      "à": 102,
      "á": 103,
      "â": 104,
      "ä": 105,
      "è": 106,
      "é": 107,
      "ê": 108,
      "ë": 109,
      "ó": 110,
      "ô": 111,
      "ö": 112,
      "ú": 113,
      "ü": 114,
      "ý": 115,
      "ā": 116,
      "ă": 117,
      "ć": 118,
      "Ĉ": 119,
      "ĉ": 120,
      "č": 121,
      "ē": 122,
      "ě": 123,
      "ĝ": 124,
      "ī": 125,
      "ĭ": 126,
      "ı": 127,
      "ō": 128,
      "ŏ": 129,
      "ř": 130,
      "š": 131,
      "ū": 132,
      "ŭ": 133,
      "ȧ": 134,
      "ɛ": 135,
      "́": 136,
      "̃": 137,
      "̅": 138,
      "̥": 139,
      "̭": 140,
      "̯": 141,
      "͡": 142,
      "ͤ": 143,
      "΄": 144,
      "α": 145,
      "β": 146,
      "γ": 147,
      "η": 148,
      "θ": 149,
      "ι": 150,
      "λ": 151,
      "μ": 152,
      "ν": 153,
      "ο": 154,
      "π": 155,
      "ς": 156,
      "σ": 157,
      "τ": 158,
      "ψ": 159,
      "ω": 160,
      "Ё": 161,
      "А": 162,
      "Б": 163,
      "В": 164,
      "Г": 165,
      "Д": 166,
      "Е": 167,
      "Ж": 168,
      "З": 169,
      "И": 170,
      "Й": 171,
      "К": 172,
      "Л": 173,
      "М": 174,
      "Н": 175,
      "О": 176,
      "П": 177,
      "Р": 178,
      "С": 179,
      "Т": 180,
      "У": 181,
      "Ф": 182,
      "Х": 183,
      "Ц": 184,
      "Ч": 185,
      "Ш": 186,
      "Щ": 187,
      "Ъ": 188,
      "Ы": 189,
      "Ь": 190,
      "Э": 191,
      "Ю": 192,
      "Я": 193,
      "а": 194,
      "б": 195,
      "в": 196,
      "г": 197,
      "д": 198,
      "е": 199,
      "ж": 200,
      "з": 201,
      "и": 202,
      "й": 203,
      "к": 204,
      "л": 205,
      "м": 206,
      "н": 207,
      "о": 208,
      "п": 209,
      "р": 210,
      "с": 211,
      "т": 212,
      "у": 213,
      "ф": 214,
      "х": 215,
      "ц": 216,
      "ч": 217,
      "ш": 218,
      "щ": 219,
      "ъ": 220,
      "ы": 221,
      "ь": 222,
      "э": 223,
      "ю": 224,
      "я": 225,
      "ё": 226,
      "і": 227,
      "ў": 228,
      "ѣ": 229,
      "ѥ": 230,
      "Ѫ": 231,
      "Ѵ": 232,
      "҃": 233,
      "Ґ": 234,
      "ҙ": 235,
      "қ": 236,
      "ӯ": 237,
      "ᴗ": 238,
      "ḗ": 239,
      "‍": 240,
      "–": 241,
      "—": 242,
      "―": 243,
      "‘": 244,
      "’": 245,
      "“": 246,
      "”": 247,
      "„": 248,
      "…": 249,
      "‼": 250,
      "€": 251,
      "₽": 252,
      "⃣": 253,
      "№": 254,
      "™": 255,
      "⅓": 256,
      "⅔": 257,
      "←": 258,
      "→": 259,
      "↓": 260,
      "≈": 261,
      "□": 262,
      "►": 263,
      "☝": 264,
      "☺": 265,
      "♀": 266,
      "♂": 267,
      "♥": 268,
      "⚡": 269,
      "⚪": 270,
      "⛪": 271,
      "✅": 272,
      "✋": 273,
      "✌": 274,
      "✏": 275,
      "✔": 276,
      "✨": 277,
      "❄": 278,
      "❗": 279,
      "❤": 280,
      "⠀": 281,
      "⭐": 282,
      "ツ": 283,
      "・": 284,
      "️": 285,
      "🇷": 286,
      "🇺": 287,
      "🌅": 288,
      "🌊": 289,
      "🌞": 290,
      "🌟": 291,
      "🌤": 292,
      "🌮": 293,
      "🌯": 294,
      "🌴": 295,
      "🌷": 296,
      "🌸": 297,
      "🌹": 298,
      "🌺": 299,
      "🌼": 300,
      "🍪": 301,
      "🍫": 302,
      "🍰": 303,
      "🍷": 304,
      "🍿": 305,
      "🎁": 306,
      "🎂": 307,
      "🎄": 308,
      "🎆": 309,
      "🎈": 310,
      "🎉": 311,
      "🎣": 312,
      "🎥": 313,
      "🎧": 314,
      "🎨": 315,
      "🎵": 316,
      "🏄": 317,
      "🏊": 318,
      "🏞": 319,
      "🏠": 320,
      "🏻": 321,
      "🏼": 322,
      "🏾": 323,
      "🐟": 324,
      "🐩": 325,
      "🐻": 326,
      "👆": 327,
      "👉": 328,
      "👋": 329,
      "👌": 330,
      "👍": 331,
      "👏": 332,
      "👑": 333,
      "👩": 334,
      "👪": 335,
      "👵": 336,
      "👶": 337,
      "👼": 338,
      "💀": 339,
      "💋": 340,
      "💐": 341,
      "💓": 342,
      "💕": 343,
      "💖": 344,
      "💗": 345,
      "💜": 346,
      "💝": 347,
      "💥": 348,
      "💪": 349,
      "💫": 350,
      "💮": 351,
      "💯": 352,
      "💶": 353,
      "📌": 354,
      "📚": 355,
      "🔁": 356,
      "🔥": 357,
      "🖐": 358,
      "😀": 359,
      "😁": 360,
      "😂": 361,
      "😃": 362,
      "😄": 363,
      "😅": 364,
      "😆": 365,
      "😇": 366,
      "😈": 367,
      "😉": 368,
      "😊": 369,
      "😋": 370,
      "😌": 371,
      "😍": 372,
      "😎": 373,
      "😕": 374,
      "😘": 375,
      "😜": 376,
      "😟": 377,
      "😤": 378,
      "😥": 379,
      "😭": 380,
      "😮": 381,
      "😱": 382,
      "😲": 383,
      "😳": 384,
      "😷": 385,
      "😸": 386,
      "😹": 387,
      "😺": 388,
      "😻": 389,
      "🙀": 390,
      "🙂": 391,
      "🙈": 392,
      "🙉": 393,
      "🙊": 394,
      "🙋": 395,
      "🙌": 396,
      "🙏": 397,
      "🤔": 398,
      "🤗": 399,
      "🤘": 400,
      "🤝": 401,
      "🤣": 402,
      "🤦": 403,
      "🤩": 404,
      "🤪": 405,
      "🤷": 406,
      "🥂": 407,
      "🥰": 408,
      "🥳": 409,
      "🦄": 410,
      "🧒": 411,
      "🧓": 412,
      "##о": 413,
      "##в": 414,
      "##е": 415,
      "##з": 416,
      "##т": 417,
      "##р": 418,
      "##д": 419,
      "##ж": 420,
      "##с": 421,
      "##и": 422,
      "##ы": 423,
      "##н": 424,
      "##а": 425,
      "##к": 426,
      "##ё": 427,
      "##л": 428,
      "##м": 429,
      "##у": 430,
      "##х": 431,
      "##ь": 432,
      "##п": 433,
      "##ш": 434,
      "##г": 435,
      "##ч": 436,
      "##й": 437,
      "##я": 438,
      "##0": 439,
      "##ю": 440,
      "##щ": 441,
      "##ф": 442,
      "##б": 443,
      "##ц": 444,
      "##э": 445,
      "##ъ": 446,
      "##́": 447,
      "##А": 448,
      "##Р": 449,
      "##Т": 450,
      "##И": 451,
      "##Я": 452,
      "##🏼": 453,
      "##t": 454,
      "##a": 455,
      "##r": 456,
      "##u": 457,
      "##p": 458,
      "##i": 459,
      "##k": 460,
      "##L": 461,
      "##e": 462,
      "##s": 463,
      "##5": 464,
      "##4": 465,
      "##9": 466,
      "##h": 467,
      "##y": 468,
      "##n": 469,
      "##Г": 470,
      "##Н": 471,
      "##С": 472,
      "##К": 473,
      "##Е": 474,
      "##П": 475,
      "##ā": 476,
      "##g": 477,
      "##ó": 478,
      "##Ы": 479,
      "##О": 480,
      "##v": 481,
      "##l": 482,
      "##6": 483,
      "##3": 484,
      "##Б": 485,
      "##У": 486,
      "##m": 487,
      "##d": 488,
      "##c": 489,
      "##o": 490,
      "##Ф": 491,
      "##В": 492,
      "##З": 493,
      "##Ж": 494,
      "##ō": 495,
      "##f": 496,
      "##j": 497,
      "##Л": 498,
      "##8": 499,
      "##7": 500,
      "##2": 501,
      "##T": 502,
      "##I": 503,
      "##1": 504,
      "##Й": 505,
      "##Ь": 506,
      "##Ч": 507,
      "##E": 508,
      "##S": 509,
      "##P": 510,
      "##w": 511,
      "##Ш": 512,
      "##ŭ": 513,
      "##á": 514,
      "##O": 515,
      "##H": 516,
      "##М": 517,
      "##Ю": 518,
      "##Х": 519,
      "##💪": 520,
      "##A": 521,
      "##V": 522,
      "##X": 523,
      "##⃣": 524,
      "##Д": 525,
      "##b": 526,
      "##z": 527,
      "##Щ": 528,
      "##Э": 529,
      "##🔥": 530,
      "##N": 531,
      "##R": 532,
      "##C": 533,
      "##q": 534,
      "##M": 535,
      "##ý": 536,
      "##B": 537,
      "##ë": 538,
      "##α": 539,
      "##λ": 540,
      "##ι": 541,
      "##μ": 542,
      "##ψ": 543,
      "##η": 544,
      "##σ": 545,
      "##τ": 546,
      "##ο": 547,
      "##ς": 548,
      "##K": 549,
      "##U": 550,
      "##❤": 551,
      "##💖": 552,
      "##Ц": 553,
      "##é": 554,
      "##x": 555,
      "##G": 556,
      "##F": 557,
      "##Q": 558,
      "##J": 559,
      "##D": 560,
      "##ѣ": 561,
      "##W": 562,
      "##👍": 563,
      "##👏": 564,
      "##ć": 565,
      "##ē": 566,
      "##Z": 567,
      "##ä": 568,
      "##γ": 569,
      "##̅": 570,
      "##ᴗ": 571,
      "##🙏": 572,
      "##🌹": 573,
      "##😀": 574,
      "##🎁": 575,
      "##🥂": 576,
      "##🤗": 577,
      "##😍": 578,
      "##🙈": 579,
      "##😘": 580,
      "##🎉": 581,
      "##̥": 582,
      "##ȧ": 583,
      "##🏻": 584,
      "##😋": 585,
      "##қ": 586,
      "##ö": 587,
      "##ḗ": 588,
      "##š": 589,
      "##θ": 590,
      "##і": 591,
      "##Ё": 592,
      "##💕": 593,
      "##🌞": 594,
      "##👌": 595,
      "##ī": 596,
      "##№": 597,
      "##̭": 598,
      "##ū": 599,
      "##ĭ": 600,
      "##ѥ": 601,
      "##🌮": 602,
      "##🌯": 603,
      "##Y": 604,
      "##🙉": 605,
      "##🙊": 606,
      "##💗": 607,
      "##😂": 608,
      "##ν": 609,
      "##̃": 610,
      "##č": 611,
      "##ӯ": 612,
      "##ú": 613,
      "##ă": 614,
      "##҃": 615,
      "##🌷": 616,
      "##©": 617,
      "##⚪": 618,
      "##ı": 619,
      "##Ъ": 620,
      "##ͤ": 621,
      "##̯": 622,
      "##ê": 623,
      "##👪": 624,
      "##👶": 625,
      "##🏾": 626,
      "##ў": 627,
      "##ř": 628,
      "##ŏ": 629,
      "##😁": 630,
      "##😈": 631,
      "##😺": 632,
      "##🤪": 633,
      "##ҙ": 634,
      "##👩": 635,
      "##🔁": 636,
      "##🧒": 637,
      "##🎣": 638,
      "##🐟": 639,
      "##😉": 640,
      "##✋": 641,
      "##😊": 642,
      "##ü": 643,
      "##💮": 644,
      "##✨": 645,
      "##🤔": 646,
      "##π": 647,
      "##💐": 648,
      "##👋": 649,
      "##🎈": 650,
      "##🎂": 651,
      "##🍰": 652,
      "##🙌": 653,
      "##🐻": 654,
      "##☺": 655,
      "##😷": 656,
      "##🥰": 657,
      "##ω": 658,
      "##🇺": 659,
      "##ĝ": 660,
      "##😤": 661,
      "##😲": 662,
      "##🍷": 663,
      "##❄": 664,
      "##â": 665,
      "##🌸": 666,
      "##💋": 667,
      "##🧓": 668,
      "##🤣": 669,
      "##😹": 670,
      "##✌": 671,
      "##è": 672,
      "##💫": 673,
      "##ст": 674,
      "##но": 675,
      "##ен": 676,
      "##ов": 677,
      "##то": 678,
      "##ра": 679,
      "##ро": 680,
      "##ли": 681,
      "по": 682,
      "##ре": 683,
      "##ет": 684,
      "на": 685,
      "##ко": 686,
      "##ни": 687,
      "##го": 688,
      "##ла": 689,
      "##ль": 690,
      "##ны": 691,
      "##ри": 692,
      "##ка": 693,
      "##на": 694,
      "не": 695,
      "##ть": 696,
      "##ки": 697,
      "##ло": 698,
      "##ва": 699,
      "##ер": 700,
      "##ся": 701,
      "##да": 702,
      "##ени": 703,
      "##те": 704,
      "##ти": 705,
      "##во": 706,
      "##та": 707,
      "##ем": 708,
      "##ми": 709,
      "##ле": 710,
      "ко": 711,
      "за": 712,
      "##ди": 713,
      "ра": 714,
      "##ес": 715,
      "то": 716,
      "##ру": 717,
      "##ви": 718,
      "про": 719,
      "ка": 720,
      "##ма": 721,
      "##сь": 722,
      "##де": 723,
      "##не": 724,
      "##ля": 725,
      "##ова": 726,
      "от": 727,
      "со": 728,
      "что": 729,
      "об": 730,
      "бы": 731,
      "при": 732,
      "##ча": 733,
      "во": 734,
      "##ест": 735,
      "##ци": 736,
      "##чи": 737,
      "##мо": 738,
      "##по": 739,
      "##за": 740,
      "##ну": 741,
      "до": 742,
      "##ку": 743,
      "##до": 744,
      "##ры": 745,
      "мо": 746,
      "##си": 747,
      "вы": 748,
      "##се": 749,
      "##сти": 750,
      "##ово": 751,
      "##бо": 752,
      "##ей": 753,
      "из": 754,
      "##ста": 755,
      "##ши": 756,
      "##ной": 757,
      "##ду": 758,
      "та": 759,
      "##ско": 760,
      "го": 761,
      "это": 762,
      "##ере": 763,
      "##му": 764,
      "##ные": 765,
      "##ных": 766,
      "##сть": 767,
      "##ения": 768,
      "##чес": 769,
      "##га": 770,
      "##ги": 771,
      "##хо": 772,
      "##ного": 773,
      "##тель": 774,
      "##ют": 775,
      "##ту": 776,
      "пре": 777,
      "раз": 778,
      "##сто": 779,
      "##лу": 780,
      "##же": 781,
      "##ве": 782,
      "##ный": 783,
      "##па": 784,
      "##ме": 785,
      "ре": 786,
      "##ня": 787,
      "как": 788,
      "##ение": 789,
      "##щи": 790,
      "##пи": 791,
      "ни": 792,
      "ли": 793,
      "##об": 794,
      "бо": 795,
      "##ски": 796,
      "##лов": 797,
      "все": 798,
      "ма": 799,
      "##мен": 800,
      "##зы": 801,
      "##ше": 802,
      "##са": 803,
      "##жа": 804,
      "##ты": 805,
      "##жи": 806,
      "##ется": 807,
      "но": 808,
      "де": 809,
      "кото": 810,
      "сво": 811,
      "под": 812,
      "ста": 813,
      "##зи": 814,
      "те": 815,
      "да": 816,
      "##вен": 817,
      "##ря": 818,
      "##кой": 819,
      "По": 820,
      "##ень": 821,
      "##ное": 822,
      "##ков": 823,
      "са": 824,
      "##ще": 825,
      "##мы": 826,
      "ст": 827,
      "##из": 828,
      "##лся": 829,
      "##пе": 830,
      "##гда": 831,
      "##ке": 832,
      "##ву": 833,
      "##со": 834,
      "пере": 835,
      "##ная": 836,
      "##вы": 837,
      "си": 838,
      "##ров": 839,
      "##ды": 840,
      "хо": 841,
      "##ным": 842,
      "его": 843,
      "##би": 844,
      "##чески": 845,
      "##лько": 846,
      "же": 847,
      "он": 848,
      "па": 849,
      "##каза": 850,
      "##жно": 851,
      "ми": 852,
      "##лы": 853,
      "##бы": 854,
      "##ния": 855,
      "ис": 856,
      "##ться": 857,
      "бу": 858,
      "ру": 859,
      "##ша": 860,
      "##сле": 861,
      "##бе": 862,
      "зна": 863,
      "ве": 864,
      "##лись": 865,
      "На": 866,
      "##че": 867,
      "##лен": 868,
      "ро": 869,
      "##ор": 870,
      "##лю": 871,
      "дру": 872,
      "##ние": 873,
      "се": 874,
      "так": 875,
      "рас": 876,
      "##раз": 877,
      "##вер": 878,
      "пред": 879,
      "##ном": 880,
      "##ции": 881,
      "сто": 882,
      "для": 883,
      "ме": 884,
      "##нов": 885,
      "##лась": 886,
      "бе": 887,
      "##су": 888,
      "##ба": 889,
      "##ца": 890,
      "од": 891,
      "су": 892,
      "##лось": 893,
      "ин": 894,
      "##гу": 895,
      "##ска": 896,
      "##про": 897,
      "##он": 898,
      "##рав": 899,
      "Но": 900,
      "которы": 901,
      "##ран": 902,
      "ви": 903,
      "воз": 904,
      "##ак": 905,
      "##ности": 906,
      "##сси": 907,
      "##вет": 908,
      "лю": 909,
      "мы": 910,
      "##ность": 911,
      "или": 912,
      "##тов": 913,
      "##мер": 914,
      "##рова": 915,
      "кон": 916,
      "##ят": 917,
      "##пу": 918,
      "##ха": 919,
      "было": 920,
      "##ща": 921,
      "че": 922,
      "##сли": 923,
      "##ком": 924,
      "##ходи": 925,
      "##рем": 926,
      "##ную": 927,
      "сов": 928,
      "сл": 929,
      "ос": 930,
      "##аль": 931,
      "##ющи": 932,
      "##дет": 933,
      "ку": 934,
      "ва": 935,
      "##дь": 936,
      "##ек": 937,
      "боль": 938,
      "##гра": 939,
      "пи": 940,
      "##зыва": 941,
      "##ства": 942,
      "##ского": 943,
      "##ство": 944,
      "только": 945,
      "##ром": 946,
      "##шь": 947,
      "##щест": 948,
      "##зна": 949,
      "их": 950,
      "##ствен": 951,
      "##чно": 952,
      "##бу": 953,
      "##це": 954,
      "##тив": 955,
      "ча": 956,
      "пер": 957,
      "##ан": 958,
      "##том": 959,
      "##нима": 960,
      "##жет": 961,
      "##ской": 962,
      "##тся": 963,
      "Во": 964,
      "язы": 965,
      "гла": 966,
      "жи": 967,
      "##ются": 968,
      "##вши": 969,
      "##вля": 970,
      "вс": 971,
      "##вя": 972,
      "##ными": 973,
      "##фи": 974,
      "она": 975,
      "##кого": 976,
      "##сту": 977,
      "##при": 978,
      "пра": 979,
      "оч": 980,
      "ее": 981,
      "челов": 982,
      "мен": 983,
      "##овы": 984,
      "##ета": 985,
      "гово": 986,
      "врем": 987,
      "уже": 988,
      "рабо": 989,
      "они": 990,
      "##ему": 991,
      "Не": 992,
      "был": 993,
      "##ский": 994,
      "То": 995,
      "стра": 996,
      "##ден": 997,
      "##рой": 998,
      "пу": 999,
      "##зу": 1000,
      "##след": 1001,
      "слу": 1002,
      "##стви": 1003,
      "Ма": 1004,
      "дол": 1005,
      "Ро": 1006,
      "произ": 1007,
      "##род": 1008,
      "эти": 1009,
      "##сы": 1010,
      "##тре": 1011,
      "##пы": 1012,
      "##ник": 1013,
      "сказа": 1014,
      "##лей": 1015,
      "##пре": 1016,
      "##ении": 1017,
      "##ети": 1018,
      "ком": 1019,
      "##ления": 1020,
      "еще": 1021,
      "ты": 1022,
      "##стоя": 1023,
      "##чест": 1024,
      "##жен": 1025,
      "##тя": 1026,
      "##кая": 1027,
      "##тельно": 1028,
      "Ко": 1029,
      "Мо": 1030,
      "Это": 1031,
      "##ис": 1032,
      "##дин": 1033,
      "##кры": 1034,
      "##кра": 1035,
      "само": 1036,
      "##вать": 1037,
      "меня": 1038,
      "вз": 1039,
      "##ция": 1040,
      "слова": 1041,
      "ду": 1042,
      "##кие": 1043,
      "ле": 1044,
      "##нь": 1045,
      "##ника": 1046,
      "есть": 1047,
      "За": 1048,
      "##ней": 1049,
      "##пер": 1050,
      "##бя": 1051,
      "Ка": 1052,
      "##ход": 1053,
      "##уч": 1054,
      "образ": 1055,
      "без": 1056,
      "свои": 1057,
      "когда": 1058,
      "##ений": 1059,
      "оста": 1060,
      "##лее": 1061,
      "##логи": 1062,
      "кра": 1063,
      "##дер": 1064,
      "##ских": 1065,
      "тем": 1066,
      "ус": 1067,
      "пла": 1068,
      "##раж": 1069,
      "ба": 1070,
      "##чен": 1071,
      "##нии": 1072,
      "ту": 1073,
      "фи": 1074,
      "##кое": 1075,
      "##лем": 1076,
      "##дар": 1077,
      "полу": 1078,
      "жиз": 1079,
      "##нова": 1080,
      "##она": 1081,
      "##цы": 1082,
      "им": 1083,
      "##ев": 1084,
      "##хи": 1085,
      "##льно": 1086,
      "##лек": 1087,
      "мест": 1088,
      "были": 1089,
      "му": 1090,
      "очень": 1091,
      "##стро": 1092,
      "может": 1093,
      "##шо": 1094,
      "чтобы": 1095,
      "время": 1096,
      "##тера": 1097,
      "##зда": 1098,
      "Он": 1099,
      "19": 1100,
      "мне": 1101,
      "исто": 1102,
      "##лож": 1103,
      "##ред": 1104,
      "нача": 1105,
      "пов": 1106,
      "##тому": 1107,
      "говори": 1108,
      "##дела": 1109,
      "##тер": 1110,
      "чу": 1111,
      "##ний": 1112,
      "чи": 1113,
      "##пол": 1114,
      "##есь": 1115,
      "##ремен": 1116,
      "нас": 1117,
      "ди": 1118,
      "##рти": 1119,
      "Росси": 1120,
      "##ких": 1121,
      "##гла": 1122,
      "если": 1123,
      "##рь": 1124,
      "##ление": 1125,
      "челове": 1126,
      "##вест": 1127,
      "даже": 1128,
      "чем": 1129,
      "рус": 1130,
      "была": 1131,
      "спо": 1132,
      "можно": 1133,
      "##ению": 1134,
      "##кую": 1135,
      "##дно": 1136,
      "Да": 1137,
      "##ск": 1138,
      "други": 1139,
      "##ом": 1140,
      "##кто": 1141,
      "##дения": 1142,
      "пол": 1143,
      "##ств": 1144,
      "##ству": 1145,
      "##сты": 1146,
      "##три": 1147,
      "##чка": 1148,
      "##енно": 1149,
      "ху": 1150,
      "##дей": 1151,
      "##овой": 1152,
      "где": 1153,
      "##жест": 1154,
      "##тра": 1155,
      "быть": 1156,
      "це": 1157,
      "##нее": 1158,
      "фор": 1159,
      "##рен": 1160,
      "которые": 1161,
      "пе": 1162,
      "сле": 1163,
      "##чь": 1164,
      "##ге": 1165,
      "##прав": 1166,
      "##вая": 1167,
      "##терату": 1168,
      "##кус": 1169,
      "тре": 1170,
      "пос": 1171,
      "этом": 1172,
      "том": 1173,
      "##шей": 1174,
      "##ческой": 1175,
      "##00": 1176,
      "##шка": 1177,
      "объ": 1178,
      "##ением": 1179,
      "##ую": 1180,
      "##лет": 1181,
      "##дом": 1182,
      "##али": 1183,
      "свя": 1184,
      "дела": 1185,
      "будет": 1186,
      "##ские": 1187,
      "ла": 1188,
      "##ческих": 1189,
      "Та": 1190,
      "##став": 1191,
      "истори": 1192,
      "вер": 1193,
      "этого": 1194,
      "##ин": 1195,
      "много": 1196,
      "тру": 1197,
      "поч": 1198,
      "того": 1199,
      "литерату": 1200,
      "При": 1201,
      "##лом": 1202,
      "ну": 1203,
      "##вали": 1204,
      "##жду": 1205,
      "##жда": 1206,
      "##кий": 1207,
      "нет": 1208,
      "име": 1209,
      "ор": 1210,
      "##фор": 1211,
      "лет": 1212,
      "##ез": 1213,
      "##гля": 1214,
      "созда": 1215,
      "##чита": 1216,
      "##вает": 1217,
      "##сов": 1218,
      "##бли": 1219,
      "вос": 1220,
      "Как": 1221,
      "##стре": 1222,
      "##ман": 1223,
      "года": 1224,
      "##ников": 1225,
      "##нес": 1226,
      "##цу": 1227,
      "##стра": 1228,
      "поли": 1229,
      "дей": 1230,
      "##льз": 1231,
      "них": 1232,
      "тех": 1233,
      "худо": 1234,
      "##вно": 1235,
      "##ена": 1236,
      "##гово": 1237,
      "##дов": 1238,
      "Бо": 1239,
      "##ники": 1240,
      "##пра": 1241,
      "##вор": 1242,
      "обра": 1243,
      "##теля": 1244,
      "##рово": 1245,
      "Со": 1246,
      "##коно": 1247,
      "##шки": 1248,
      "##тия": 1249,
      "более": 1250,
      "##емы": 1251,
      "##ит": 1252,
      "##вой": 1253,
      "ав": 1254,
      "мно": 1255,
      "друго": 1256,
      "гру": 1257,
      "##чу": 1258,
      "##тере": 1259,
      "##стави": 1260,
      "##циаль": 1261,
      "ему": 1262,
      "##пример": 1263,
      "##ками": 1264,
      "обо": 1265,
      "сти": 1266,
      "##ческого": 1267,
      "Что": 1268,
      "помо": 1269,
      "##бра": 1270,
      "##ким": 1271,
      "отно": 1272,
      "каж": 1273,
      "##мест": 1274,
      "ско": 1275,
      "##ара": 1276,
      "кто": 1277,
      "##час": 1278,
      "Ра": 1279,
      "##клю": 1280,
      "разви": 1281,
      "Ни": 1282,
      "эк": 1283,
      "##цион": 1284,
      "##ар": 1285,
      "##соб": 1286,
      "##дя": 1287,
      "##ческие": 1288,
      "Ми": 1289,
      "кру": 1290,
      "##кла": 1291,
      "##телей": 1292,
      "##нд": 1293,
      "случа": 1294,
      "##ская": 1295,
      "##ском": 1296,
      "##рев": 1297,
      "после": 1298,
      "гра": 1299,
      "прави": 1300,
      "##чки": 1301,
      "##спо": 1302,
      "искус": 1303,
      "хоро": 1304,
      "него": 1305,
      "##тери": 1306,
      "просто": 1307,
      "##ках": 1308,
      "##лови": 1309,
      "##кон": 1310,
      "##преде": 1311,
      "вла": 1312,
      "кри": 1313,
      "##писа": 1314,
      "##ед": 1315,
      "##чего": 1316,
      "спе": 1317,
      "себя": 1318,
      "##его": 1319,
      "##вал": 1320,
      "буду": 1321,
      "день": 1322,
      "##нови": 1323,
      "##тно": 1324,
      "##мет": 1325,
      "России": 1326,
      "ти": 1327,
      "##ять": 1328,
      "##рого": 1329,
      "ска": 1330,
      "Так": 1331,
      "называ": 1332,
      "слово": 1333,
      "послед": 1334,
      "тра": 1335,
      "сторо": 1336,
      "авто": 1337,
      "##можно": 1338,
      "тер": 1339,
      "цен": 1340,
      "##емо": 1341,
      "бес": 1342,
      "##перь": 1343,
      "Го": 1344,
      "ки": 1345,
      "##судар": 1346,
      "поэ": 1347,
      "##ейчас": 1348,
      "кла": 1349,
      "Од": 1350,
      "всех": 1351,
      "##шего": 1352,
      "Ве": 1353,
      "##ян": 1354,
      "сущест": 1355,
      "##нул": 1356,
      "поз": 1357,
      "га": 1358,
      "Про": 1359,
      "всего": 1360,
      "##бой": 1361,
      "дет": 1362,
      "##цен": 1363,
      "подо": 1364,
      "##ур": 1365,
      "сдела": 1366,
      "##ете": 1367,
      "##цию": 1368,
      "который": 1369,
      "##кономи": 1370,
      "##сте": 1371,
      "слов": 1372,
      "##рая": 1373,
      "общест": 1374,
      "вот": 1375,
      "кни": 1376,
      "орга": 1377,
      "##чение": 1378,
      "##ования": 1379,
      "жизни": 1380,
      "там": 1381,
      "ак": 1382,
      "между": 1383,
      "этот": 1384,
      "ок": 1385,
      "Мы": 1386,
      "нау": 1387,
      "##нг": 1388,
      "надо": 1389,
      "##зь": 1390,
      "##десь": 1391,
      "##ерез": 1392,
      "перед": 1393,
      "смо": 1394,
      "сист": 1395,
      "ло": 1396,
      "##тели": 1397,
      "##ставля": 1398,
      "пока": 1399,
      "поня": 1400,
      "##нако": 1401,
      "Па": 1402,
      "Вы": 1403,
      "##ях": 1404,
      "самы": 1405,
      "##яви": 1406,
      "##лик": 1407,
      "сказал": 1408,
      "Если": 1409,
      "##яс": 1410,
      "##овать": 1411,
      "Пу": 1412,
      "могу": 1413,
      "больше": 1414,
      "сер": 1415,
      "##торы": 1416,
      "##тро": 1417,
      "экономи": 1418,
      "От": 1419,
      "##дня": 1420,
      "неско": 1421,
      "особ": 1422,
      "себе": 1423,
      "##сс": 1424,
      "действи": 1425,
      "один": 1426,
      "##вые": 1427,
      "##жествен": 1428,
      "над": 1429,
      "государ": 1430,
      "чер": 1431,
      "высо": 1432,
      "вопро": 1433,
      "Са": 1434,
      "##щей": 1435,
      "##им": 1436,
      "##ене": 1437,
      "работа": 1438,
      "##менно": 1439,
      "ры": 1440,
      "##вра": 1441,
      "два": 1442,
      "##сно": 1443,
      "полити": 1444,
      "##шен": 1445,
      "##руг": 1446,
      "##ющих": 1447,
      "##жу": 1448,
      "##ших": 1449,
      "сред": 1450,
      "тоже": 1451,
      "##зо": 1452,
      "Все": 1453,
      "##щего": 1454,
      "##кре": 1455,
      "живо": 1456,
      "опреде": 1457,
      "нам": 1458,
      "значи": 1459,
      "Она": 1460,
      "##дан": 1461,
      "человек": 1462,
      "##дели": 1463,
      "##ющие": 1464,
      "##ложи": 1465,
      "##рии": 1466,
      "вой": 1467,
      "ар": 1468,
      "##рази": 1469,
      "новы": 1470,
      "кре": 1471,
      "##ческий": 1472,
      "писа": 1473,
      "пло": 1474,
      "шко": 1475,
      "##ью": 1476,
      "Вот": 1477,
      "глаза": 1478,
      "этой": 1479,
      "соб": 1480,
      "Ли": 1481,
      "##лага": 1482,
      "##вый": 1483,
      "##жд": 1484,
      "##ному": 1485,
      "ответ": 1486,
      "##чем": 1487,
      "##лин": 1488,
      "наз": 1489,
      "##дел": 1490,
      "##лич": 1491,
      "##тор": 1492,
      "стро": 1493,
      "Хо": 1494,
      "счита": 1495,
      "##нет": 1496,
      "нем": 1497,
      "##еми": 1498,
      "ша": 1499,
      "##пла": 1500,
      "Ну": 1501,
      "##зе": 1502,
      "кор": 1503,
      "испо": 1504,
      "##ним": 1505,
      "##сла": 1506,
      "##вед": 1507,
      "интере": 1508,
      "##стов": 1509,
      "##шая": 1510,
      "До": 1511,
      "откры": 1512,
      "##лли": 1513,
      "необ": 1514,
      "году": 1515,
      "##вод": 1516,
      "пор": 1517,
      "##рода": 1518,
      "##бира": 1519,
      "также": 1520,
      "##той": 1521,
      "##ково": 1522,
      "голо": 1523,
      "##ступ": 1524,
      "##дель": 1525,
      "##ностью": 1526,
      "##II": 1527,
      "многи": 1528,
      "##вают": 1529,
      "лишь": 1530,
      "мог": 1531,
      "##шу": 1532,
      "ней": 1533,
      "##кти": 1534,
      "например": 1535,
      "##лень": 1536,
      "Си": 1537,
      "уча": 1538,
      "луч": 1539,
      "##нечно": 1540,
      "##шения": 1541,
      "потому": 1542,
      "##чет": 1543,
      "ря": 1544,
      "##вро": 1545,
      "Ва": 1546,
      "получи": 1547,
      "##лиз": 1548,
      "потом": 1549,
      "##ональ": 1550,
      "##личи": 1551,
      "##чения": 1552,
      "##щен": 1553,
      "органи": 1554,
      "своей": 1555,
      "людей": 1556,
      "##мени": 1557,
      "обла": 1558,
      "##шел": 1559,
      "##лез": 1560,
      "##мати": 1561,
      "##щее": 1562,
      "моло": 1563,
      "##дол": 1564,
      "через": 1565,
      "##от": 1566,
      "##ющий": 1567,
      "##нут": 1568,
      "##кло": 1569,
      "##нные": 1570,
      "гу": 1571,
      "##чина": 1572,
      "сейчас": 1573,
      "ши": 1574,
      "всегда": 1575,
      "Они": 1576,
      "ге": 1577,
      "извест": 1578,
      "##шло": 1579,
      "человека": 1580,
      "теперь": 1581,
      "##сем": 1582,
      "##нен": 1583,
      "##вается": 1584,
      "проб": 1585,
      "тут": 1586,
      "зем": 1587,
      "##ходит": 1588,
      "##ню": 1589,
      "расс": 1590,
      "глу": 1591,
      "народ": 1592,
      "##кан": 1593,
      "##спе": 1594,
      "##арак": 1595,
      "способ": 1596,
      "би": 1597,
      "глав": 1598,
      "языка": 1599,
      "обы": 1600,
      "Из": 1601,
      "18": 1602,
      "##лаго": 1603,
      "несколько": 1604,
      "смы": 1605,
      "##шли": 1606,
      "такой": 1607,
      "ничего": 1608,
      "три": 1609,
      "возможно": 1610,
      "##дить": 1611,
      "##шие": 1612,
      "свою": 1613,
      "современ": 1614,
      "изоб": 1615,
      "##ража": 1616,
      "сла": 1617,
      "Ку": 1618,
      "уда": 1619,
      "свет": 1620,
      "куль": 1621,
      "##ема": 1622,
      "##стя": 1623,
      "##щая": 1624,
      "здесь": 1625,
      "##них": 1626,
      "харак": 1627,
      "##пло": 1628,
      "##нула": 1629,
      "##ут": 1630,
      "##хов": 1631,
      "##дит": 1632,
      "##нец": 1633,
      "эта": 1634,
      "##бор": 1635,
      "##держа": 1636,
      "времени": 1637,
      "древ": 1638,
      "##ые": 1639,
      "##таль": 1640,
      "##нию": 1641,
      "упо": 1642,
      "других": 1643,
      "##мой": 1644,
      "явля": 1645,
      "вся": 1646,
      "##рю": 1647,
      "##проси": 1648,
      "##нок": 1649,
      "сту": 1650,
      "дву": 1651,
      "которых": 1652,
      "##мина": 1653,
      "##фо": 1654,
      "понима": 1655,
      "##вший": 1656,
      "пров": 1657,
      "Пет": 1658,
      "##разу": 1659,
      "##ешь": 1660,
      "ог": 1661,
      "Однако": 1662,
      "дви": 1663,
      "сло": 1664,
      "дума": 1665,
      "ей": 1666,
      "неко": 1667,
      "##вых": 1668,
      "##цев": 1669,
      "иде": 1670,
      "совет": 1671,
      "##ций": 1672,
      "##хва": 1673,
      "##ское": 1674,
      "##льта": 1675,
      "Ви": 1676,
      "чет": 1677,
      "##нер": 1678,
      "##стран": 1679,
      "##нием": 1680,
      "##рт": 1681,
      "##сом": 1682,
      "встре": 1683,
      "этих": 1684,
      "##стер": 1685,
      "##стей": 1686,
      "дево": 1687,
      "##пита": 1688,
      "##ровать": 1689,
      "##тен": 1690,
      "##лова": 1691,
      "свой": 1692,
      "совер": 1693,
      "##шение": 1694,
      "пись": 1695,
      "сооб": 1696,
      "##рое": 1697,
      "проис": 1698,
      "сме": 1699,
      "учи": 1700,
      "вмест": 1701,
      "##тки": 1702,
      "##ссий": 1703,
      "##гов": 1704,
      "##рабо": 1705,
      "##йти": 1706,
      "##стью": 1707,
      "стал": 1708,
      "сего": 1709,
      "##треб": 1710,
      "##ых": 1711,
      "художествен": 1712,
      "долж": 1713,
      "##лия": 1714,
      "культу": 1715,
      "##дой": 1716,
      "чита": 1717,
      "голов": 1718,
      "##ший": 1719,
      "тогда": 1720,
      "##ья": 1721,
      "дере": 1722,
      "##цес": 1723,
      "##лё": 1724,
      "жизнь": 1725,
      "##чает": 1726,
      "всё": 1727,
      "доро": 1728,
      "оказа": 1729,
      "##стве": 1730,
      "сегодня": 1731,
      "оп": 1732,
      "сем": 1733,
      "люди": 1734,
      "ново": 1735,
      "проблем": 1736,
      "пря": 1737,
      "##сит": 1738,
      "перво": 1739,
      "##будь": 1740,
      "##чной": 1741,
      "собствен": 1742,
      "вели": 1743,
      "##ствова": 1744,
      "##него": 1745,
      "матери": 1746,
      "##нуть": 1747,
      "зо": 1748,
      "место": 1749,
      "##тие": 1750,
      "##дума": 1751,
      "##кова": 1752,
      "##шла": 1753,
      "##чество": 1754,
      "##дова": 1755,
      "##зм": 1756,
      "##рук": 1757,
      "исслед": 1758,
      "лег": 1759,
      "##мни": 1760,
      "##чку": 1761,
      "##ведения": 1762,
      "##ряд": 1763,
      "##мери": 1764,
      "которая": 1765,
      "##пас": 1766,
      "сам": 1767,
      "одно": 1768,
      "вто": 1769,
      "##нем": 1770,
      "##рот": 1771,
      "##тем": 1772,
      "нибудь": 1773,
      "##ским": 1774,
      "##рия": 1775,
      "##реди": 1776,
      "своих": 1777,
      "сы": 1778,
      "##нный": 1779,
      "##нных": 1780,
      "##казыва": 1781,
      "хотя": 1782,
      "##яв": 1783,
      "##йте": 1784,
      "##дать": 1785,
      "##ческая": 1786,
      "следу": 1787,
      "могут": 1788,
      "##зульта": 1789,
      "200": 1790,
      "##слу": 1791,
      "уста": 1792,
      "##зма": 1793,
      "##чала": 1794,
      "##нк": 1795,
      "фо": 1796,
      "##нти": 1797,
      "тот": 1798,
      "почти": 1799,
      "прав": 1800,
      "зву": 1801,
      "Те": 1802,
      "уви": 1803,
      "именно": 1804,
      "##жения": 1805,
      "##ститу": 1806,
      "зада": 1807,
      "##циали": 1808,
      "##зя": 1809,
      "тор": 1810,
      "россий": 1811,
      "успе": 1812,
      "дело": 1813,
      "##мент": 1814,
      "большо": 1815,
      "ним": 1816,
      "прин": 1817,
      "реши": 1818,
      "одной": 1819,
      "##вшие": 1820,
      "которой": 1821,
      "##ступа": 1822,
      "продол": 1823,
      "дома": 1824,
      "Га": 1825,
      "##форма": 1826,
      "совсем": 1827,
      "##грам": 1828,
      "##ху": 1829,
      "приня": 1830,
      "##зиден": 1831,
      "##хра": 1832,
      "кол": 1833,
      "чув": 1834,
      "Ру": 1835,
      "благо": 1836,
      "##рую": 1837,
      "вне": 1838,
      "##вала": 1839,
      "тебя": 1840,
      "Де": 1841,
      "##дца": 1842,
      "сте": 1843,
      "гор": 1844,
      "необходи": 1845,
      "##фа": 1846,
      "Ба": 1847,
      "показа": 1848,
      "результа": 1849,
      "жен": 1850,
      "##доб": 1851,
      "другой": 1852,
      "какой": 1853,
      "уни": 1854,
      "говоря": 1855,
      "расска": 1856,
      "тя": 1857,
      "мир": 1858,
      "ино": 1859,
      "##нт": 1860,
      "##щения": 1861,
      "##ница": 1862,
      "##циональ": 1863,
      "##вших": 1864,
      "##ясь": 1865,
      "малень": 1866,
      "20": 1867,
      "тол": 1868,
      "процес": 1869,
      "##жал": 1870,
      "Когда": 1871,
      "##ством": 1872,
      "вооб": 1873,
      "Моск": 1874,
      "##зации": 1875,
      "против": 1876,
      "Ты": 1877,
      "##ждения": 1878,
      "##графи": 1879,
      "##ель": 1880,
      "##пера": 1881,
      "##гре": 1882,
      "кар": 1883,
      "времен": 1884,
      "тыся": 1885,
      "##тиво": 1886,
      "языке": 1887,
      "##льзова": 1888,
      "преж": 1889,
      "ника": 1890,
      "##образ": 1891,
      "##щих": 1892,
      "литератур": 1893,
      "##прави": 1894,
      "бро": 1895,
      "основ": 1896,
      "буд": 1897,
      "нео": 1898,
      "Ин": 1899,
      "бра": 1900,
      "выраж": 1901,
      "##ток": 1902,
      "карти": 1903,
      "оно": 1904,
      "твор": 1905,
      "##рами": 1906,
      "##ческое": 1907,
      "##льные": 1908,
      "назва": 1909,
      "пы": 1910,
      "согла": 1911,
      "нужно": 1912,
      "груп": 1913,
      "Толик": 1914,
      "фа": 1915,
      "хорошо": 1916,
      "либо": 1917,
      "вас": 1918,
      "##твер": 1919,
      "##туа": 1920,
      "связа": 1921,
      "Ива": 1922,
      "##роде": 1923,
      "лиц": 1924,
      "люби": 1925,
      "##нения": 1926,
      "стали": 1927,
      "взгля": 1928,
      "худож": 1929,
      "##чные": 1930,
      "всем": 1931,
      "##чных": 1932,
      "##чный": 1933,
      "внима": 1934,
      "##нах": 1935,
      "пример": 1936,
      "роди": 1937,
      "позво": 1938,
      "ри": 1939,
      "##ливо": 1940,
      "свое": 1941,
      "##друг": 1942,
      "вол": 1943,
      "Ки": 1944,
      "##нной": 1945,
      "своего": 1946,
      "##ил": 1947,
      "чего": 1948,
      "Пер": 1949,
      "##щий": 1950,
      "начина": 1951,
      "стран": 1952,
      "нес": 1953,
      "##лый": 1954,
      "##лыша": 1955,
      "##сса": 1956,
      "##ятся": 1957,
      "##тин": 1958,
      "конечно": 1959,
      "##рах": 1960,
      "спи": 1961,
      "##воз": 1962,
      "##льный": 1963,
      "##чества": 1964,
      "##чать": 1965,
      "такие": 1966,
      "язык": 1967,
      "Об": 1968,
      "##шин": 1969,
      "##тий": 1970,
      "призна": 1971,
      "##блю": 1972,
      "##лой": 1973,
      "широ": 1974,
      "##щё": 1975,
      "##скую": 1976,
      "нико": 1977,
      "деся": 1978,
      "##ружи": 1979,
      "##мети": 1980,
      "##чер": 1981,
      "XV": 1982,
      "спа": 1983,
      "##тру": 1984,
      "Ста": 1985,
      "теле": 1986,
      "Ле": 1987,
      "спроси": 1988,
      "##щение": 1989,
      "##льзу": 1990,
      "##тельности": 1991,
      "ведь": 1992,
      "##ум": 1993,
      "##диви": 1994,
      "ги": 1995,
      "##жды": 1996,
      "одна": 1997,
      "##ел": 1998,
      "##фес": 1999,
      "##готов": 2000,
      "игра": 2001,
      "доб": 2002,
      "фак": 2003,
      "Ре": 2004,
      "##ологи": 2005,
      "##шее": 2006,
      "сказать": 2007,
      "эту": 2008,
      "тебе": 2009,
      "стоя": 2010,
      "другие": 2011,
      "##льных": 2012,
      "##стой": 2013,
      "##ответ": 2014,
      "##вле": 2015,
      "##еха": 2016,
      "вес": 2017,
      "##мя": 2018,
      "противо": 2019,
      "нор": 2020,
      "##ваться": 2021,
      "##тельные": 2022,
      "сразу": 2023,
      "##щу": 2024,
      "непо": 2025,
      "##волю": 2026,
      "бан": 2027,
      "настоя": 2028,
      "##чат": 2029,
      "ци": 2030,
      "##жение": 2031,
      "вра": 2032,
      "##рави": 2033,
      "##тами": 2034,
      "науч": 2035,
      "говорит": 2036,
      "##нить": 2037,
      "##тельный": 2038,
      "Для": 2039,
      "состоя": 2040,
      "##лые": 2041,
      "написа": 2042,
      "свобо": 2043,
      "стало": 2044,
      "объяс": 2045,
      "##нно": 2046,
      "##ктор": 2047,
      "президен": 2048,
      "весь": 2049,
      "##шую": 2050,
      "##льчи": 2051,
      "##вшись": 2052,
      "##ступи": 2053,
      "некоторы": 2054,
      "гре": 2055,
      "##нами": 2056,
      "##рта": 2057,
      "находи": 2058,
      "Лю": 2059,
      "##чал": 2060,
      "цвет": 2061,
      "жа": 2062,
      "##гази": 2063,
      "искусства": 2064,
      "наи": 2065,
      "##деть": 2066,
      "прово": 2067,
      "важ": 2068,
      "побе": 2069,
      "зако": 2070,
      "быстро": 2071,
      "двух": 2072,
      "##щем": 2073,
      "стол": 2074,
      "практи": 2075,
      "##ить": 2076,
      "##фе": 2077,
      "##тить": 2078,
      "##щие": 2079,
      "будут": 2080,
      "##яза": 2081,
      "случае": 2082,
      "очере": 2083,
      "особенно": 2084,
      "огром": 2085,
      "иг": 2086,
      "пар": 2087,
      "яв": 2088,
      "##лла": 2089,
      "уг": 2090,
      "пес": 2091,
      "страны": 2092,
      "занима": 2093,
      "##пусти": 2094,
      "##ём": 2095,
      "##нулся": 2096,
      "##льной": 2097,
      "сви": 2098,
      "##тый": 2099,
      "готов": 2100,
      "##шим": 2101,
      "род": 2102,
      "мину": 2103,
      "её": 2104,
      "##дви": 2105,
      "работы": 2106,
      "##рови": 2107,
      "две": 2108,
      "которого": 2109,
      "такое": 2110,
      "##зии": 2111,
      "кры": 2112,
      "##еть": 2113,
      "##вались": 2114,
      "бога": 2115,
      "##мом": 2116,
      "##вым": 2117,
      "часто": 2118,
      "дер": 2119,
      "##лий": 2120,
      "профес": 2121,
      "хоте": 2122,
      "сказала": 2123,
      "нее": 2124,
      "стороны": 2125,
      "учен": 2126,
      "##коло": 2127,
      "реаль": 2128,
      "сол": 2129,
      "##тельных": 2130,
      "##ести": 2131,
      "парти": 2132,
      "даль": 2133,
      "мини": 2134,
      "##явля": 2135,
      "##роме": 2136,
      "##кам": 2137,
      "бук": 2138,
      "##нали": 2139,
      "##льзя": 2140,
      "##тельства": 2141,
      "направ": 2142,
      "представи": 2143,
      "образом": 2144,
      "услови": 2145,
      "стать": 2146,
      "вообще": 2147,
      "появи": 2148,
      "##ье": 2149,
      "##ходя": 2150,
      "эпо": 2151,
      "##ями": 2152,
      "##ранцу": 2153,
      "произведения": 2154,
      "вместе": 2155,
      "наш": 2156,
      "##чета": 2157,
      "соответ": 2158,
      "город": 2159,
      "обществен": 2160,
      "сю": 2161,
      "похо": 2162,
      "власти": 2163,
      "##рос": 2164,
      "образова": 2165,
      "Бу": 2166,
      "##сова": 2167,
      "собой": 2168,
      "##боль": 2169,
      "год": 2170,
      "Поэ": 2171,
      "зави": 2172,
      "социаль": 2173,
      "руково": 2174,
      "друг": 2175,
      "магази": 2176,
      "Бы": 2177,
      "Гла": 2178,
      "##мот": 2179,
      "##тые": 2180,
      "уров": 2181,
      "##рить": 2182,
      "Ан": 2183,
      "##фф": 2184,
      "##кри": 2185,
      "переда": 2186,
      "является": 2187,
      "вдруг": 2188,
      "тек": 2189,
      "лучше": 2190,
      "снова": 2191,
      "мира": 2192,
      "##жем": 2193,
      "доста": 2194,
      "програм": 2195,
      "сами": 2196,
      "одного": 2197,
      "XI": 2198,
      "##тельной": 2199,
      "ситуа": 2200,
      "##вую": 2201,
      "газ": 2202,
      "коро": 2203,
      "комп": 2204,
      "##вое": 2205,
      "мальчи": 2206,
      "##рей": 2207,
      "##шно": 2208,
      "значит": 2209,
      "##нологи": 2210,
      "недо": 2211,
      "##кими": 2212,
      "различ": 2213,
      "##пыт": 2214,
      "##пей": 2215,
      "нашей": 2216,
      "Алек": 2217,
      "дея": 2218,
      "лес": 2219,
      "Нет": 2220,
      "##ницы": 2221,
      "##пад": 2222,
      "ещё": 2223,
      "##ый": 2224,
      "делать": 2225,
      "прекра": 2226,
      "долго": 2227,
      "характер": 2228,
      "##нан": 2229,
      "принци": 2230,
      "ад": 2231,
      "тому": 2232,
      "##жать": 2233,
      "помощ": 2234,
      "##шку": 2235,
      "никогда": 2236,
      "Ме": 2237,
      "Сов": 2238,
      "##ым": 2239,
      "##рам": 2240,
      "##помина": 2241,
      "комна": 2242,
      "##дук": 2243,
      "осно": 2244,
      "Раз": 2245,
      "гро": 2246,
      "##ческим": 2247,
      "Че": 2248,
      "##цией": 2249,
      "таких": 2250,
      "почему": 2251,
      "##сков": 2252,
      "конце": 2253,
      "еди": 2254,
      "века": 2255,
      "вам": 2256,
      "неу": 2257,
      "##тельного": 2258,
      "##рит": 2259,
      "обяза": 2260,
      "##мента": 2261,
      "бере": 2262,
      "уго": 2263,
      "мало": 2264,
      "предлож": 2265,
      "дом": 2266,
      "истории": 2267,
      "речи": 2268,
      "##пов": 2269,
      "взя": 2270,
      "##говор": 2271,
      "круп": 2272,
      "##конец": 2273,
      "##води": 2274,
      "диа": 2275,
      "##вести": 2276,
      "специаль": 2277,
      "##рок": 2278,
      "заме": 2279,
      "##чить": 2280,
      "срав": 2281,
      "кажды": 2282,
      "##мотре": 2283,
      "геро": 2284,
      "##строй": 2285,
      "чис": 2286,
      "##ющей": 2287,
      "##лича": 2288,
      "проек": 2289,
      "попа": 2290,
      "мама": 2291,
      "своим": 2292,
      "пери": 2293,
      "исследова": 2294,
      "Евро": 2295,
      "##жит": 2296,
      "куда": 2297,
      "компа": 2298,
      "Вла": 2299,
      "##тил": 2300,
      "##зад": 2301,
      "дости": 2302,
      "рез": 2303,
      "Су": 2304,
      "фу": 2305,
      "Анд": 2306,
      "францу": 2307,
      "##кси": 2308,
      "оби": 2309,
      "##жива": 2310,
      "элек": 2311,
      "измен": 2312,
      "##льного": 2313,
      "##тных": 2314,
      "тради": 2315,
      "употреб": 2316,
      "дово": 2317,
      "мета": 2318,
      "мя": 2319,
      "кос": 2320,
      "живопи": 2321,
      "граж": 2322,
      "##СС": 2323,
      "##рий": 2324,
      "мол": 2325,
      "##сут": 2326,
      "Сер": 2327,
      "мед": 2328,
      "##ствие": 2329,
      "##нка": 2330,
      "этим": 2331,
      "убе": 2332,
      "##ёт": 2333,
      "право": 2334,
      "##венно": 2335,
      "хозя": 2336,
      "собы": 2337,
      "стре": 2338,
      "часть": 2339,
      "пожа": 2340,
      "##жден": 2341,
      "##тур": 2342,
      "##имо": 2343,
      "назад": 2344,
      "отве": 2345,
      "сама": 2346,
      "свер": 2347,
      "##ее": 2348,
      "неме": 2349,
      "Например": 2350,
      "вопрос": 2351,
      "должен": 2352,
      "узна": 2353,
      "##дут": 2354,
      "руки": 2355,
      "Мне": 2356,
      "Пи": 2357,
      "##тельное": 2358,
      "ску": 2359,
      "женщи": 2360,
      "##ям": 2361,
      "каза": 2362,
      "маши": 2363,
      "представ": 2364,
      "подоб": 2365,
      "распо": 2366,
      "##мерикан": 2367,
      "коман": 2368,
      "##пуска": 2369,
      "смер": 2370,
      "##чного": 2371,
      "окон": 2372,
      "##бря": 2373,
      "места": 2374,
      "##ены": 2375,
      "неза": 2376,
      "##тых": 2377,
      "##хот": 2378,
      "предпо": 2379,
      "развития": 2380,
      "##ффек": 2381,
      "##ваются": 2382,
      "##ерт": 2383,
      "станови": 2384,
      "##грани": 2385,
      "##вшего": 2386,
      "представля": 2387,
      "15": 2388,
      "##зов": 2389,
      "##ющего": 2390,
      "##ленные": 2391,
      "слож": 2392,
      "уче": 2393,
      "един": 2394,
      "милли": 2395,
      "Поэтому": 2396,
      "Бе": 2397,
      "##кад": 2398,
      "част": 2399,
      "части": 2400,
      "многие": 2401,
      "##дина": 2402,
      "##есть": 2403,
      "##нная": 2404,
      "наде": 2405,
      "##еви": 2406,
      "##пря": 2407,
      "вид": 2408,
      "информа": 2409,
      "жур": 2410,
      "##вался": 2411,
      "##дии": 2412,
      "сохра": 2413,
      "уч": 2414,
      "воен": 2415,
      "мето": 2416,
      "##ждение": 2417,
      "ква": 2418,
      "ули": 2419,
      "##нки": 2420,
      "Воз": 2421,
      "##нение": 2422,
      "нельзя": 2423,
      "##овари": 2424,
      "мор": 2425,
      "##шест": 2426,
      "деньги": 2427,
      "выс": 2428,
      "необходимо": 2429,
      "##труд": 2430,
      "форма": 2431,
      "##пере": 2432,
      "##ША": 2433,
      "значение": 2434,
      "Ла": 2435,
      "##лении": 2436,
      "##юсь": 2437,
      "##чит": 2438,
      "пам": 2439,
      "##крати": 2440,
      "##нного": 2441,
      "самом": 2442,
      "Мар": 2443,
      "сна": 2444,
      "возник": 2445,
      "США": 2446,
      "смыс": 2447,
      "бю": 2448,
      "##еры": 2449,
      "никто": 2450,
      "##лена": 2451,
      "сделать": 2452,
      "##ческую": 2453,
      "озна": 2454,
      "государствен": 2455,
      "##лки": 2456,
      "постоя": 2457,
      "жела": 2458,
      "распро": 2459,
      "интерес": 2460,
      "ради": 2461,
      "Под": 2462,
      "многих": 2463,
      "лу": 2464,
      "##нным": 2465,
      "##кому": 2466,
      "##ьез": 2467,
      "основа": 2468,
      "##ющим": 2469,
      "офи": 2470,
      "институ": 2471,
      "экс": 2472,
      "смотре": 2473,
      "материа": 2474,
      "хи": 2475,
      "какие": 2476,
      "реали": 2477,
      "##честве": 2478,
      "мас": 2479,
      "чуть": 2480,
      "имеет": 2481,
      "пода": 2482,
      "заня": 2483,
      "около": 2484,
      "##чай": 2485,
      "должны": 2486,
      "вет": 2487,
      "##шенно": 2488,
      "##лии": 2489,
      "коло": 2490,
      "превра": 2491,
      "##овых": 2492,
      "дале": 2493,
      "10": 2494,
      "уж": 2495,
      "##скому": 2496,
      "види": 2497,
      "см": 2498,
      "##рения": 2499,
      "##мыш": 2500,
      "наблю": 2501,
      "приходи": 2502,
      "всю": 2503,
      "стала": 2504,
      "стоит": 2505,
      "##полне": 2506,
      "##ником": 2507,
      "##прия": 2508,
      "##тельность": 2509,
      "управ": 2510,
      "##лово": 2511,
      "##тельство": 2512,
      "##няя": 2513,
      "##рее": 2514,
      "ны": 2515,
      "##лений": 2516,
      "обе": 2517,
      "города": 2518,
      "друга": 2519,
      "##ствует": 2520,
      "##носи": 2521,
      "##дания": 2522,
      "защи": 2523,
      "тон": 2524,
      "##лены": 2525,
      "сли": 2526,
      "будто": 2527,
      "Ди": 2528,
      "##щую": 2529,
      "которое": 2530,
      "фон": 2531,
      "##гом": 2532,
      "##там": 2533,
      "После": 2534,
      "Пере": 2535,
      "##тая": 2536,
      "тео": 2537,
      "универ": 2538,
      "француз": 2539,
      "разных": 2540,
      "внут": 2541,
      "тво": 2542,
      "годы": 2543,
      "деле": 2544,
      "прямо": 2545,
      "сни": 2546,
      "производ": 2547,
      "##рон": 2548,
      "перио": 2549,
      "анг": 2550,
      "##туры": 2551,
      "Пушки": 2552,
      "спра": 2553,
      "отдель": 2554,
      "##лог": 2555,
      "##ственно": 2556,
      "##чествен": 2557,
      "окру": 2558,
      "золо": 2559,
      "ал": 2560,
      "кня": 2561,
      "##ниц": 2562,
      "Ар": 2563,
      "##еде": 2564,
      "##нулась": 2565,
      "детей": 2566,
      "Его": 2567,
      "насе": 2568,
      "продук": 2569,
      "которую": 2570,
      "Пре": 2571,
      "##тельным": 2572,
      "первый": 2573,
      "евро": 2574,
      "##нев": 2575,
      "повер": 2576,
      "большой": 2577,
      "ожи": 2578,
      "##цов": 2579,
      "капита": 2580,
      "Ведь": 2581,
      "##кадеми": 2582,
      "ум": 2583,
      "прошло": 2584,
      "выбо": 2585,
      "руб": 2586,
      "американ": 2587,
      "##льку": 2588,
      "предмет": 2589,
      "##лемен": 2590,
      "##чная": 2591,
      "давно": 2592,
      "##полни": 2593,
      "револю": 2594,
      "##рито": 2595,
      "Кра": 2596,
      "вну": 2597,
      "##чное": 2598,
      "##ходят": 2599,
      "Зна": 2600,
      "содержа": 2601,
      "##док": 2602,
      "борь": 2603,
      "##лых": 2604,
      "виде": 2605,
      "русского": 2606,
      "каждый": 2607,
      "##вова": 2608,
      "##их": 2609,
      "##ген": 2610,
      "##ляр": 2611,
      "обна": 2612,
      "возду": 2613,
      "##льное": 2614,
      "менее": 2615,
      "Сиби": 2616,
      "Влади": 2617,
      "##бов": 2618,
      "неиз": 2619,
      "равно": 2620,
      "лицо": 2621,
      "##мена": 2622,
      "литературы": 2623,
      "##дали": 2624,
      "##полня": 2625,
      "поко": 2626,
      "##сона": 2627,
      "коли": 2628,
      "##стри": 2629,
      "оте": 2630,
      "##ган": 2631,
      "меся": 2632,
      "##ссе": 2633,
      "##того": 2634,
      "поро": 2635,
      "исклю": 2636,
      "Только": 2637,
      "труд": 2638,
      "Гер": 2639,
      "мень": 2640,
      "отнош": 2641,
      "##клады": 2642,
      "XIX": 2643,
      "рес": 2644,
      "сим": 2645,
      "языков": 2646,
      "##тах": 2647,
      "знач": 2648,
      "актив": 2649,
      "обес": 2650,
      "сосе": 2651,
      "##более": 2652,
      "сне": 2653,
      "##ленно": 2654,
      "Боль": 2655,
      "немец": 2656,
      "анти": 2657,
      "##еди": 2658,
      "четы": 2659,
      "ск": 2660,
      "уси": 2661,
      "##бова": 2662,
      "##ляет": 2663,
      "##бур": 2664,
      "говорить": 2665,
      "среди": 2666,
      "утвер": 2667,
      "##зей": 2668,
      "##ющее": 2669,
      "закон": 2670,
      "мой": 2671,
      "##тура": 2672,
      "финан": 2673,
      "##точно": 2674,
      "кого": 2675,
      "мире": 2676,
      "нуж": 2677,
      "##ССР": 2678,
      "бли": 2679,
      "котором": 2680,
      "##ленных": 2681,
      "стране": 2682,
      "##хе": 2683,
      "##стест": 2684,
      "##дал": 2685,
      "##рый": 2686,
      "эффек": 2687,
      "XVII": 2688,
      "##шем": 2689,
      "##что": 2690,
      "##чей": 2691,
      "Кон": 2692,
      "демо": 2693,
      "улы": 2694,
      "##шком": 2695,
      "##помни": 2696,
      "начала": 2697,
      "существу": 2698,
      "продолжа": 2699,
      "подня": 2700,
      "роль": 2701,
      "вполне": 2702,
      "ост": 2703,
      "##овые": 2704,
      "специали": 2705,
      "близ": 2706,
      "##пози": 2707,
      "##зывает": 2708,
      "##чается": 2709,
      "должно": 2710,
      "крас": 2711,
      "##бер": 2712,
      "таки": 2713,
      "яр": 2714,
      "речь": 2715,
      "пара": 2716,
      "све": 2717,
      "поме": 2718,
      "##рил": 2719,
      "##изнес": 2720,
      "произнес": 2721,
      "совершенно": 2722,
      "нов": 2723,
      "##лета": 2724,
      "##лением": 2725,
      "затем": 2726,
      "##гие": 2727,
      "##чень": 2728,
      "участ": 2729,
      "забо": 2730,
      "##ческом": 2731,
      "скоро": 2732,
      "тро": 2733,
      "##или": 2734,
      "вклю": 2735,
      "сча": 2736,
      "##тр": 2737,
      "внутрен": 2738,
      "##чек": 2739,
      "относи": 2740,
      "ды": 2741,
      "дра": 2742,
      "дня": 2743,
      "##вез": 2744,
      "стари": 2745,
      "террито": 2746,
      "Се": 2747,
      "СССР": 2748,
      "##лит": 2749,
      "##есто": 2750,
      "любо": 2751,
      "пти": 2752,
      "##вшей": 2753,
      "ап": 2754,
      "##чке": 2755,
      "##дия": 2756,
      "##дово": 2757,
      "##нное": 2758,
      "##дает": 2759,
      "собра": 2760,
      "крити": 2761,
      "пози": 2762,
      "##телем": 2763,
      "##чис": 2764,
      "##кола": 2765,
      "забы": 2766,
      "использова": 2767,
      "наши": 2768,
      "##дил": 2769,
      "вок": 2770,
      "системы": 2771,
      "##работа": 2772,
      "Алё": 2773,
      "Есть": 2774,
      "физи": 2775,
      "пыта": 2776,
      "влия": 2777,
      "жан": 2778,
      "той": 2779,
      "##тора": 2780,
      "глубо": 2781,
      "сотруд": 2782,
      "такого": 2783,
      "бума": 2784,
      "общества": 2785,
      "закры": 2786,
      "энер": 2787,
      "невоз": 2788,
      "точно": 2789,
      "мет": 2790,
      "националь": 2791,
      "рай": 2792,
      "##гами": 2793,
      "норма": 2794,
      "пово": 2795,
      "##овая": 2796,
      "мар": 2797,
      "фигу": 2798,
      "Теперь": 2799,
      "серьез": 2800,
      "обычно": 2801,
      "##ствия": 2802,
      "произвед": 2803,
      "##пыта": 2804,
      "бизнес": 2805,
      "##вли": 2806,
      "составля": 2807,
      "##шать": 2808,
      "хва": 2809,
      "##чным": 2810,
      "##пара": 2811,
      "професси": 2812,
      "зе": 2813,
      "##над": 2814,
      "случай": 2815,
      "голову": 2816,
      "##циа": 2817,
      "таким": 2818,
      "##меня": 2819,
      "говорят": 2820,
      "##стру": 2821,
      "##вом": 2822,
      "##дцать": 2823,
      "заклю": 2824,
      "##скольку": 2825,
      "##хом": 2826,
      "тяже": 2827,
      "ними": 2828,
      "ше": 2829,
      "##чо": 2830,
      "собира": 2831,
      "такая": 2832,
      "краси": 2833,
      "##xx": 2834,
      "подума": 2835,
      "##лок": 2836,
      "##ложен": 2837,
      "стар": 2838,
      "связи": 2839,
      "внеш": 2840,
      "прежде": 2841,
      "сере": 2842,
      "иногда": 2843,
      "край": 2844,
      "новые": 2845,
      "области": 2846,
      "Владими": 2847,
      "осо": 2848,
      "Поч": 2849,
      "дире": 2850,
      "дене": 2851,
      "##струк": 2852,
      "##станов": 2853,
      "рису": 2854,
      "граждан": 2855,
      "рядом": 2856,
      "ныне": 2857,
      "Хоро": 2858,
      "##сю": 2859,
      "радо": 2860,
      "##чали": 2861,
      "##един": 2862,
      "войны": 2863,
      "дерев": 2864,
      "бле": 2865,
      "##ложение": 2866,
      "каждо": 2867,
      "Сейчас": 2868,
      "укра": 2869,
      "пой": 2870,
      "##риан": 2871,
      "неболь": 2872,
      "##тай": 2873,
      "соба": 2874,
      "прода": 2875,
      "Му": 2876,
      "##тные": 2877,
      "##ёл": 2878,
      "разно": 2879,
      "идет": 2880,
      "##мож": 2881,
      "холо": 2882,
      "интер": 2883,
      "Алекса": 2884,
      "дис": 2885,
      "ощу": 2886,
      "поддер": 2887,
      "##вян": 2888,
      "сколько": 2889,
      "##нам": 2890,
      "всей": 2891,
      "судь": 2892,
      "использу": 2893,
      "публи": 2894,
      "месте": 2895,
      "пле": 2896,
      "элемен": 2897,
      "##ющая": 2898,
      "##куда": 2899,
      "мыс": 2900,
      "обеспе": 2901,
      "##мирова": 2902,
      "прос": 2903,
      "##кать": 2904,
      "##емон": 2905,
      "##ражение": 2906,
      "числе": 2907,
      "оконча": 2908,
      "осу": 2909,
      "##дра": 2910,
      "##щим": 2911,
      "государства": 2912,
      "обозна": 2913,
      "##шед": 2914,
      "четыре": 2915,
      "Вер": 2916,
      "экспе": 2917,
      "система": 2918,
      "дво": 2919,
      "двер": 2920,
      "Александ": 2921,
      "ужа": 2922,
      "##мии": 2923,
      "##ляется": 2924,
      "##чая": 2925,
      "восто": 2926,
      "реги": 2927,
      "##публи": 2928,
      "мастер": 2929,
      "##мые": 2930,
      "технологи": 2931,
      "Потом": 2932,
      "##цами": 2933,
      "конф": 2934,
      "фило": 2935,
      "##личие": 2936,
      "оде": 2937,
      "##нению": 2938,
      "Тогда": 2939,
      "удиви": 2940,
      "##мини": 2941,
      "кур": 2942,
      "##писы": 2943,
      "##печат": 2944,
      "Ду": 2945,
      "тран": 2946,
      "##жали": 2947,
      "поэтому": 2948,
      "Лу": 2949,
      "##слов": 2950,
      "класси": 2951,
      "тысяч": 2952,
      "пси": 2953,
      "##вания": 2954,
      "работу": 2955,
      "должна": 2956,
      "Фран": 2957,
      "увер": 2958,
      "неда": 2959,
      "руку": 2960,
      "русской": 2961,
      "##вшая": 2962,
      "##нта": 2963,
      "##льным": 2964,
      "самых": 2965,
      "##лять": 2966,
      "этому": 2967,
      "##луй": 2968,
      "голос": 2969,
      "могли": 2970,
      "посте": 2971,
      "студен": 2972,
      "вов": 2973,
      "##кс": 2974,
      "паль": 2975,
      "университ": 2976,
      "##пли": 2977,
      "рассказа": 2978,
      "кли": 2979,
      "##чности": 2980,
      "навер": 2981,
      "##рует": 2982,
      "приоб": 2983,
      "одну": 2984,
      "самого": 2985,
      "Там": 2986,
      "формы": 2987,
      "вза": 2988,
      "##льп": 2989,
      "##чил": 2990,
      "Вели": 2991,
      "Эти": 2992,
      "естест": 2993,
      "##лая": 2994,
      "техни": 2995,
      "постро": 2996,
      "архи": 2997,
      "пят": 2998,
      "уби": 2999,
      "##чик": 3000,
      "##бро": 3001,
      "знаю": 3002,
      "произо": 3003,
      "красо": 3004,
      "опять": 3005,
      "##джет": 3006,
      "##каз": 3007,
      "непри": 3008,
      "большин": 3009,
      "наиболее": 3010,
      "зло": 3011,
      "повы": 3012,
      "##лению": 3013,
      "##нача": 3014,
      "##матри": 3015,
      "##едера": 3016,
      "однако": 3017,
      "уве": 3018,
      "поло": 3019,
      "##еты": 3020,
      "##валась": 3021,
      "##скими": 3022,
      "помощью": 3023,
      "Здесь": 3024,
      "народа": 3025,
      "##тей": 3026,
      "принима": 3027,
      "##хода": 3028,
      "возвра": 3029,
      "девочка": 3030,
      "##жки": 3031,
      "первых": 3032,
      "муж": 3033,
      "коми": 3034,
      "##стом": 3035,
      "стан": 3036,
      "Ге": 3037,
      "мысли": 3038,
      "электро": 3039,
      "уме": 3040,
      "замети": 3041,
      "##анта": 3042,
      "посмотре": 3043,
      "памят": 3044,
      "##дки": 3045,
      "полови": 3046,
      "ночь": 3047,
      "второй": 3048,
      "##льная": 3049,
      "организа": 3050,
      "спросил": 3051,
      "##ницу": 3052,
      "культуры": 3053,
      "легко": 3054,
      "##лка": 3055,
      "возра": 3056,
      "возможность": 3057,
      "Кто": 3058,
      "##лн": 3059,
      "глаго": 3060,
      "грам": 3061,
      "папа": 3062,
      "17": 3063,
      "XX": 3064,
      "##чают": 3065,
      "##ческими": 3066,
      "##енера": 3067,
      "##дной": 3068,
      "причи": 3069,
      "##ствовать": 3070
    },
    "merges": [
      [
        "##с",
        "##т"
      ],
      [
        "##н",
        "##о"
      ],
      [
        "##е",
        "##н"
      ],
      [
        "##о",
        "##в"
      ],
      [
        "##т",
        "##о"
      ],
      [
        "##р",
        "##а"
      ],
      [
        "##р",
        "##о"
      ],
      [
        "##л",
        "##и"
      ],
      [
        "п",
        "##о"
      ],
      [
        "##р",
        "##е"
      ],
      [
        "##е",
        "##т"
      ],
      [
        "н",
        "##а"
      ],
      [
        "##к",
        "##о"
      ],
      [
        "##н",
        "##и"
      ],
      [
        "##г",
        "##о"
      ],
      [
        "##л",
        "##а"
      ],
      [
        "##л",
        "##ь"
      ],
      [
        "##н",
        "##ы"
      ],
      [
        "##р",
        "##и"
      ],
      [
        "##к",
        "##а"
      ],
      [
        "##н",
        "##а"
      ],
      [
        "н",
        "##е"
      ],
      [
        "##т",
        "##ь"
      ],
      [
        "##к",
        "##и"
      ],
      [
        "##л",
        "##о"
      ],
      [
        "##в",
        "##а"
      ],
      [
        "##е",
        "##р"
      ],
      [
        "##с",
        "##я"
      ],
      [
        "##д",
        "##а"
      ],
      [
        "##ен",
        "##и"
      ],
      [
        "##т",
        "##е"
      ],
      [
        "##т",
        "##и"
      ],
      [
        "##в",
        "##о"
      ],
      [
        "##т",
        "##а"
      ],
      [
        "##е",
        "##м"
      ],
      [
        "##м",
        "##и"
      ],
      [
        "##л",
        "##е"
      ],
      [
        "к",
        "##о"
      ],
      [
        "з",
        "##а"
      ],
      [
        "##д",
        "##и"
      ],
      [
        "р",
        "##а"
      ],
      [
        "##е",
        "##с"
      ],
      [
        "т",
        "##о"
      ],
      [
        "##р",
        "##у"
      ],
      [
        "##в",
        "##и"
      ],
      [
        "п",
        "##ро"
      ],
      [
        "к",
        "##а"
      ],
      [
        "##м",
        "##а"
      ],
      [
        "##с",
        "##ь"
      ],
      [
        "##д",
        "##е"
      ],
      [
        "##н",
        "##е"
      ],
      [
        "##л",
        "##я"
      ],
      [
        "##ов",
        "##а"
      ],
      [
        "о",
        "##т"
      ],
      [
        "с",
        "##о"
      ],
      [
        "ч",
        "##то"
      ],
      [
        "о",
        "##б"
      ],
      [
        "б",
        "##ы"
      ],
      [
        "п",
        "##ри"
      ],
      [
        "##ч",
        "##а"
      ],
      [
        "в",
        "##о"
      ],
      [
        "##е",
        "##ст"
      ],
      [
        "##ц",
        "##и"
      ],
      [
        "##ч",
        "##и"
      ],
      [
        "##м",
        "##о"
      ],
      [
        "##п",
        "##о"
      ],
      [
        "##з",
        "##а"
      ],
      [
        "##н",
        "##у"
      ],
      [
        "д",
        "##о"
      ],
      [
        "##к",
        "##у"
      ],
      [
        "##д",
        "##о"
      ],
      [
        "##р",
        "##ы"
      ],
      [
        "м",
        "##о"
      ],
      [
        "##с",
        "##и"
      ],
      [
        "в",
        "##ы"
      ],
      [
        "##с",
        "##е"
      ],
      [
        "##ст",
        "##и"
      ],
      [
        "##ов",
        "##о"
      ],
      [
        "##б",
        "##о"
      ],
      [
        "##е",
        "##й"
      ],
      [
        "и",
        "##з"
      ],
      [
        "##ст",
        "##а"
      ],
      [
        "##ш",
        "##и"
      ],
      [
        "##но",
        "##й"
      ],
      [
        "##д",
        "##у"
      ],
      [
        "т",
        "##а"
      ],
      [
        "##с",
        "##ко"
      ],
      [
        "г",
        "##о"
      ],
      [
        "э",
        "##то"
      ],
      [
        "##е",
        "##ре"
      ],
      [
        "##м",
        "##у"
      ],
      [
        "##ны",
        "##е"
      ],
      [
        "##ны",
        "##х"
      ],
      [
        "##ст",
        "##ь"
      ],
      [
        "##ени",
        "##я"
      ],
      [
        "##ч",
        "##ес"
      ],
      [
        "##г",
        "##а"
      ],
      [
        "##г",
        "##и"
      ],
      [
        "##х",
        "##о"
      ],
      [
        "##но",
        "##го"
      ],
      [
        "##те",
        "##ль"
      ],
      [
        "##ю",
        "##т"
      ],
      [
        "##т",
        "##у"
      ],
      [
        "п",
        "##ре"
      ],
      [
        "ра",
        "##з"
      ],
      [
        "##ст",
        "##о"
      ],
      [
        "##л",
        "##у"
      ],
      [
        "##ж",
        "##е"
      ],
      [
        "##в",
        "##е"
      ],
      [
        "##ны",
        "##й"
      ],
      [
        "##п",
        "##а"
      ],
      [
        "##м",
        "##е"
      ],
      [
        "р",
        "##е"
      ],
      [
        "##н",
        "##я"
      ],
      [
        "ка",
        "##к"
      ],
      [
        "##ени",
        "##е"
      ],
      [
        "##щ",
        "##и"
      ],
      [
        "##п",
        "##и"
      ],
      [
        "н",
        "##и"
      ],
      [
        "л",
        "##и"
      ],
      [
        "##о",
        "##б"
      ],
      [
        "б",
        "##о"
      ],
      [
        "##с",
        "##ки"
      ],
      [
        "##л",
        "##ов"
      ],
      [
        "в",
        "##се"
      ],
      [
        "м",
        "##а"
      ],
      [
        "##м",
        "##ен"
      ],
      [
        "##з",
        "##ы"
      ],
      [
        "##ш",
        "##е"
      ],
      [
        "##с",
        "##а"
      ],
      [
        "##ж",
        "##а"
      ],
      [
        "##т",
        "##ы"
      ],
      [
        "##ж",
        "##и"
      ],
      [
        "##ет",
        "##ся"
      ],
      [
        "н",
        "##о"
      ],
      [
        "д",
        "##е"
      ],
      [
        "ко",
        "##то"
      ],
      [
        "с",
        "##во"
      ],
      [
        "по",
        "##д"
      ],
      [
        "с",
        "##та"
      ],
      [
        "##з",
        "##и"
      ],
      [
        "т",
        "##е"
      ],
      [
        "д",
        "##а"
      ],
      [
        "##в",
        "##ен"
      ],
      [
        "##р",
        "##я"
      ],
      [
        "##ко",
        "##й"
      ],
      [
        "П",
        "##о"
      ],
      [
        "##ен",
        "##ь"
      ],
      [
        "##но",
        "##е"
      ],
      [
        "##к",
        "##ов"
      ],
      [
        "с",
        "##а"
      ],
      [
        "##щ",
        "##е"
      ],
      [
        "##м",
        "##ы"
      ],
      [
        "с",
        "##т"
      ],
      [
        "##и",
        "##з"
      ],
      [
        "##л",
        "##ся"
      ],
      [
        "##п",
        "##е"
      ],
      [
        "##г",
        "##да"
      ],
      [
        "##к",
        "##е"
      ],
      [
        "##в",
        "##у"
      ],
      [
        "##с",
        "##о"
      ],
      [
        "п",
        "##ере"
      ],
      [
        "##на",
        "##я"
      ],
      [
        "##в",
        "##ы"
      ],
      [
        "с",
        "##и"
      ],
      [
        "##р",
        "##ов"
      ],
      [
        "##д",
        "##ы"
      ],
      [
        "х",
        "##о"
      ],
      [
        "##ны",
        "##м"
      ],
      [
        "е",
        "##го"
      ],
      [
        "##б",
        "##и"
      ],
      [
        "##чес",
        "##ки"
      ],
      [
        "##ль",
        "##ко"
      ],
      [
        "ж",
        "##е"
      ],
      [
        "о",
        "##н"
      ],
      [
        "п",
        "##а"
      ],
      [
        "##ка",
        "##за"
      ],
      [
        "##ж",
        "##но"
      ],
      [
        "м",
        "##и"
      ],
      [
        "##л",
        "##ы"
      ],
      [
        "##б",
        "##ы"
      ],
      [
        "##ни",
        "##я"
      ],
      [
        "и",
        "##с"
      ],
      [
        "##ть",
        "##ся"
      ],
      [
        "б",
        "##у"
      ],
      [
        "р",
        "##у"
      ],
      [
        "##ш",
        "##а"
      ],
      [
        "##с",
        "##ле"
      ],
      [
        "##б",
        "##е"
      ],
      [
        "з",
        "##на"
      ],
      [
        "в",
        "##е"
      ],
      [
        "##ли",
        "##сь"
      ],
      [
        "Н",
        "##а"
      ],
      [
        "##ч",
        "##е"
      ],
      [
        "##л",
        "##ен"
      ],
      [
        "р",
        "##о"
      ],
      [
        "##о",
        "##р"
      ],
      [
        "##л",
        "##ю"
      ],
      [
        "д",
        "##ру"
      ],
      [
        "##ни",
        "##е"
      ],
      [
        "с",
        "##е"
      ],
      [
        "та",
        "##к"
      ],
      [
        "ра",
        "##с"
      ],
      [
        "##ра",
        "##з"
      ],
      [
        "##в",
        "##ер"
      ],
      [
        "пре",
        "##д"
      ],
      [
        "##но",
        "##м"
      ],
      [
        "##ци",
        "##и"
      ],
      [
        "с",
        "##то"
      ],
      [
        "д",
        "##ля"
      ],
      [
        "м",
        "##е"
      ],
      [
        "##но",
        "##в"
      ],
      [
        "##ла",
        "##сь"
      ],
      [
        "б",
        "##е"
      ],
      [
        "##с",
        "##у"
      ],
      [
        "##б",
        "##а"
      ],
      [
        "##ц",
        "##а"
      ],
      [
        "о",
        "##д"
      ],
      [
        "с",
        "##у"
      ],
      [
        "##ло",
        "##сь"
      ],
      [
        "и",
        "##н"
      ],
      [
        "##г",
        "##у"
      ],
      [
        "##с",
        "##ка"
      ],
      [
        "##п",
        "##ро"
      ],
      [
        "##о",
        "##н"
      ],
      [
        "##ра",
        "##в"
      ],
      [
        "Н",
        "##о"
      ],
      [
        "кото",
        "##ры"
      ],
      [
        "##ра",
        "##н"
      ],
      [
        "в",
        "##и"
      ],
      [
        "во",
        "##з"
      ],
      [
        "##а",
        "##к"
      ],
      [
        "##но",
        "##сти"
      ],
      [
        "##с",
        "##си"
      ],
      [
        "##в",
        "##ет"
      ],
      [
        "л",
        "##ю"
      ],
      [
        "м",
        "##ы"
      ],
      [
        "##но",
        "##сть"
      ],
      [
        "и",
        "##ли"
      ],
      [
        "##т",
        "##ов"
      ],
      [
        "##м",
        "##ер"
      ],
      [
        "##р",
        "##ова"
      ],
      [
        "ко",
        "##н"
      ],
      [
        "##я",
        "##т"
      ],
      [
        "##п",
        "##у"
      ],
      [
        "##х",
        "##а"
      ],
      [
        "бы",
        "##ло"
      ],
      [
        "##щ",
        "##а"
      ],
      [
        "ч",
        "##е"
      ],
      [
        "##с",
        "##ли"
      ],
      [
        "##ко",
        "##м"
      ],
      [
        "##хо",
        "##ди"
      ],
      [
        "##ре",
        "##м"
      ],
      [
        "##ну",
        "##ю"
      ],
      [
        "с",
        "##ов"
      ],
      [
        "с",
        "##л"
      ],
      [
        "о",
        "##с"
      ],
      [
        "##а",
        "##ль"
      ],
      [
        "##ю",
        "##щи"
      ],
      [
        "##д",
        "##ет"
      ],
      [
        "к",
        "##у"
      ],
      [
        "в",
        "##а"
      ],
      [
        "##д",
        "##ь"
      ],
      [
        "##е",
        "##к"
      ],
      [
        "бо",
        "##ль"
      ],
      [
        "##г",
        "##ра"
      ],
      [
        "п",
        "##и"
      ],
      [
        "##зы",
        "##ва"
      ],
      [
        "##ст",
        "##ва"
      ],
      [
        "##ско",
        "##го"
      ],
      [
        "##ст",
        "##во"
      ],
      [
        "то",
        "##лько"
      ],
      [
        "##ро",
        "##м"
      ],
      [
        "##ш",
        "##ь"
      ],
      [
        "##щ",
        "##ест"
      ],
      [
        "##з",
        "##на"
      ],
      [
        "и",
        "##х"
      ],
      [
        "##ст",
        "##вен"
      ],
      [
        "##ч",
        "##но"
      ],
      [
        "##б",
        "##у"
      ],
      [
        "##ц",
        "##е"
      ],
      [
        "##ти",
        "##в"
      ],
      [
        "ч",
        "##а"
      ],
      [
        "п",
        "##ер"
      ],
      [
        "##а",
        "##н"
      ],
      [
        "##то",
        "##м"
      ],
      [
        "##ни",
        "##ма"
      ],
      [
        "##ж",
        "##ет"
      ],
      [
        "##ско",
        "##й"
      ],
      [
        "##т",
        "##ся"
      ],
      [
        "В",
        "##о"
      ],
      [
        "я",
        "##зы"
      ],
      [
        "г",
        "##ла"
      ],
      [
        "ж",
        "##и"
      ],
      [
        "##ют",
        "##ся"
      ],
      [
        "##в",
        "##ши"
      ],
      [
        "##в",
        "##ля"
      ],
      [
        "в",
        "##с"
      ],
      [
        "##в",
        "##я"
      ],
      [
        "##ны",
        "##ми"
      ],
      [
        "##ф",
        "##и"
      ],
      [
        "о",
        "##на"
      ],
      [
        "##ко",
        "##го"
      ],
      [
        "##ст",
        "##у"
      ],
      [
        "##п",
        "##ри"
      ],
      [
        "п",
        "##ра"
      ],
      [
        "о",
        "##ч"
      ],
      [
        "е",
        "##е"
      ],
      [
        "че",
        "##лов"
      ],
      [
        "м",
        "##ен"
      ],
      [
        "##ов",
        "##ы"
      ],
      [
        "##ет",
        "##а"
      ],
      [
        "г",
        "##ово"
      ],
      [
        "в",
        "##рем"
      ],
      [
        "у",
        "##же"
      ],
      [
        "ра",
        "##бо"
      ],
      [
        "о",
        "##ни"
      ],
      [
        "##ем",
        "##у"
      ],
      [
        "Н",
        "##е"
      ],
      [
        "бы",
        "##л"
      ],
      [
        "##ски",
        "##й"
      ],
      [
        "Т",
        "##о"
      ],
      [
        "ст",
        "##ра"
      ],
      [
        "##д",
        "##ен"
      ],
      [
        "##ро",
        "##й"
      ],
      [
        "п",
        "##у"
      ],
      [
        "##з",
        "##у"
      ],
      [
        "##сле",
        "##д"
      ],
      [
        "с",
        "##лу"
      ],
      [
        "##ст",
        "##ви"
      ],
      [
        "М",
        "##а"
      ],
      [
        "до",
        "##л"
      ],
      [
        "Р",
        "##о"
      ],
      [
        "про",
        "##из"
      ],
      [
        "##ро",
        "##д"
      ],
      [
        "э",
        "##ти"
      ],
      [
        "##с",
        "##ы"
      ],
      [
        "##т",
        "##ре"
      ],
      [
        "##п",
        "##ы"
      ],
      [
        "##ни",
        "##к"
      ],
      [
        "с",
        "##каза"
      ],
      [
        "##ле",
        "##й"
      ],
      [
        "##п",
        "##ре"
      ],
      [
        "##ени",
        "##и"
      ],
      [
        "##ет",
        "##и"
      ],
      [
        "ко",
        "##м"
      ],
      [
        "##л",
        "##ения"
      ],
      [
        "е",
        "##ще"
      ],
      [
        "т",
        "##ы"
      ],
      [
        "##сто",
        "##я"
      ],
      [
        "##ч",
        "##ест"
      ],
      [
        "##ж",
        "##ен"
      ],
      [
        "##т",
        "##я"
      ],
      [
        "##ка",
        "##я"
      ],
      [
        "##тель",
        "##но"
      ],
      [
        "К",
        "##о"
      ],
      [
        "М",
        "##о"
      ],
      [
        "Э",
        "##то"
      ],
      [
        "##и",
        "##с"
      ],
      [
        "##ди",
        "##н"
      ],
      [
        "##к",
        "##ры"
      ],
      [
        "##к",
        "##ра"
      ],
      [
        "са",
        "##мо"
      ],
      [
        "##ва",
        "##ть"
      ],
      [
        "мен",
        "##я"
      ],
      [
        "в",
        "##з"
      ],
      [
        "##ци",
        "##я"
      ],
      [
        "сл",
        "##ова"
      ],
      [
        "д",
        "##у"
      ],
      [
        "##ки",
        "##е"
      ],
      [
        "л",
        "##е"
      ],
      [
        "##н",
        "##ь"
      ],
      [
        "##ни",
        "##ка"
      ],
      [
        "е",
        "##сть"
      ],
      [
        "З",
        "##а"
      ],
      [
        "##не",
        "##й"
      ],
      [
        "##п",
        "##ер"
      ],
      [
        "##б",
        "##я"
      ],
      [
        "К",
        "##а"
      ],
      [
        "##хо",
        "##д"
      ],
      [
        "##у",
        "##ч"
      ],
      [
        "об",
        "##раз"
      ],
      [
        "бе",
        "##з"
      ],
      [
        "сво",
        "##и"
      ],
      [
        "ко",
        "##гда"
      ],
      [
        "##ени",
        "##й"
      ],
      [
        "о",
        "##ста"
      ],
      [
        "##ле",
        "##е"
      ],
      [
        "##ло",
        "##ги"
      ],
      [
        "к",
        "##ра"
      ],
      [
        "##д",
        "##ер"
      ],
      [
        "##ски",
        "##х"
      ],
      [
        "т",
        "##ем"
      ],
      [
        "у",
        "##с"
      ],
      [
        "п",
        "##ла"
      ],
      [
        "##ра",
        "##ж"
      ],
      [
        "б",
        "##а"
      ],
      [
        "##ч",
        "##ен"
      ],
      [
        "##ни",
        "##и"
      ],
      [
        "т",
        "##у"
      ],
      [
        "ф",
        "##и"
      ],
      [
        "##ко",
        "##е"
      ],
      [
        "##л",
        "##ем"
      ],
      [
        "##да",
        "##р"
      ],
      [
        "по",
        "##лу"
      ],
      [
        "ж",
        "##из"
      ],
      [
        "##но",
        "##ва"
      ],
      [
        "##о",
        "##на"
      ],
      [
        "##ц",
        "##ы"
      ],
      [
        "и",
        "##м"
      ],
      [
        "##е",
        "##в"
      ],
      [
        "##х",
        "##и"
      ],
      [
        "##ль",
        "##но"
      ],
      [
        "##ле",
        "##к"
      ],
      [
        "м",
        "##ест"
      ],
      [
        "бы",
        "##ли"
      ],
      [
        "м",
        "##у"
      ],
      [
        "оч",
        "##ень"
      ],
      [
        "##ст",
        "##ро"
      ],
      [
        "мо",
        "##жет"
      ],
      [
        "##ш",
        "##о"
      ],
      [
        "что",
        "##бы"
      ],
      [
        "врем",
        "##я"
      ],
      [
        "##те",
        "##ра"
      ],
      [
        "##з",
        "##да"
      ],
      [
        "О",
        "##н"
      ],
      [
        "1",
        "##9"
      ],
      [
        "м",
        "##не"
      ],
      [
        "и",
        "##сто"
      ],
      [
        "##ло",
        "##ж"
      ],
      [
        "##ре",
        "##д"
      ],
      [
        "на",
        "##ча"
      ],
      [
        "п",
        "##ов"
      ],
      [
        "##то",
        "##му"
      ],
      [
        "гово",
        "##ри"
      ],
      [
        "##де",
        "##ла"
      ],
      [
        "##т",
        "##ер"
      ],
      [
        "ч",
        "##у"
      ],
      [
        "##ни",
        "##й"
      ],
      [
        "ч",
        "##и"
      ],
      [
        "##по",
        "##л"
      ],
      [
        "##ес",
        "##ь"
      ],
      [
        "##ре",
        "##мен"
      ],
      [
        "на",
        "##с"
      ],
      [
        "д",
        "##и"
      ],
      [
        "##р",
        "##ти"
      ],
      [
        "Ро",
        "##сси"
      ],
      [
        "##ки",
        "##х"
      ],
      [
        "##г",
        "##ла"
      ],
      [
        "е",
        "##сли"
      ],
      [
        "##р",
        "##ь"
      ],
      [
        "##л",
        "##ение"
      ],
      [
        "челов",
        "##е"
      ],
      [
        "##в",
        "##ест"
      ],
      [
        "да",
        "##же"
      ],
      [
        "ч",
        "##ем"
      ],
      [
        "ру",
        "##с"
      ],
      [
        "бы",
        "##ла"
      ],
      [
        "с",
        "##по"
      ],
      [
        "мо",
        "##жно"
      ],
      [
        "##ени",
        "##ю"
      ],
      [
        "##ку",
        "##ю"
      ],
      [
        "##д",
        "##но"
      ],
      [
        "Д",
        "##а"
      ],
      [
        "##с",
        "##к"
      ],
      [
        "дру",
        "##ги"
      ],
      [
        "##о",
        "##м"
      ],
      [
        "##к",
        "##то"
      ],
      [
        "##д",
        "##ения"
      ],
      [
        "по",
        "##л"
      ],
      [
        "##ст",
        "##в"
      ],
      [
        "##ст",
        "##ву"
      ],
      [
        "##ст",
        "##ы"
      ],
      [
        "##т",
        "##ри"
      ],
      [
        "##ч",
        "##ка"
      ],
      [
        "##ен",
        "##но"
      ],
      [
        "х",
        "##у"
      ],
      [
        "##де",
        "##й"
      ],
      [
        "##ово",
        "##й"
      ],
      [
        "г",
        "##де"
      ],
      [
        "##ж",
        "##ест"
      ],
      [
        "##т",
        "##ра"
      ],
      [
        "бы",
        "##ть"
      ],
      [
        "ц",
        "##е"
      ],
      [
        "##не",
        "##е"
      ],
      [
        "ф",
        "##ор"
      ],
      [
        "##р",
        "##ен"
      ],
      [
        "которы",
        "##е"
      ],
      [
        "п",
        "##е"
      ],
      [
        "с",
        "##ле"
      ],
      [
        "##ч",
        "##ь"
      ],
      [
        "##г",
        "##е"
      ],
      [
        "##п",
        "##рав"
      ],
      [
        "##ва",
        "##я"
      ],
      [
        "##тера",
        "##ту"
      ],
      [
        "##ку",
        "##с"
      ],
      [
        "т",
        "##ре"
      ],
      [
        "по",
        "##с"
      ],
      [
        "это",
        "##м"
      ],
      [
        "то",
        "##м"
      ],
      [
        "##ш",
        "##ей"
      ],
      [
        "##чес",
        "##кой"
      ],
      [
        "##0",
        "##0"
      ],
      [
        "##ш",
        "##ка"
      ],
      [
        "об",
        "##ъ"
      ],
      [
        "##ени",
        "##ем"
      ],
      [
        "##у",
        "##ю"
      ],
      [
        "##л",
        "##ет"
      ],
      [
        "##до",
        "##м"
      ],
      [
        "##а",
        "##ли"
      ],
      [
        "с",
        "##вя"
      ],
      [
        "де",
        "##ла"
      ],
      [
        "бу",
        "##дет"
      ],
      [
        "##ски",
        "##е"
      ],
      [
        "л",
        "##а"
      ],
      [
        "##чески",
        "##х"
      ],
      [
        "Т",
        "##а"
      ],
      [
        "##ста",
        "##в"
      ],
      [
        "исто",
        "##ри"
      ],
      [
        "в",
        "##ер"
      ],
      [
        "это",
        "##го"
      ],
      [
        "##и",
        "##н"
      ],
      [
        "м",
        "##ного"
      ],
      [
        "т",
        "##ру"
      ],
      [
        "по",
        "##ч"
      ],
      [
        "то",
        "##го"
      ],
      [
        "ли",
        "##терату"
      ],
      [
        "П",
        "##ри"
      ],
      [
        "##ло",
        "##м"
      ],
      [
        "н",
        "##у"
      ],
      [
        "##ва",
        "##ли"
      ],
      [
        "##ж",
        "##ду"
      ],
      [
        "##ж",
        "##да"
      ],
      [
        "##ки",
        "##й"
      ],
      [
        "н",
        "##ет"
      ],
      [
        "и",
        "##ме"
      ],
      [
        "о",
        "##р"
      ],
      [
        "##ф",
        "##ор"
      ],
      [
        "л",
        "##ет"
      ],
      [
        "##е",
        "##з"
      ],
      [
        "##г",
        "##ля"
      ],
      [
        "со",
        "##зда"
      ],
      [
        "##чи",
        "##та"
      ],
      [
        "##ва",
        "##ет"
      ],
      [
        "##с",
        "##ов"
      ],
      [
        "##б",
        "##ли"
      ],
      [
        "во",
        "##с"
      ],
      [
        "К",
        "##ак"
      ],
      [
        "##ст",
        "##ре"
      ],
      [
        "##ма",
        "##н"
      ],
      [
        "го",
        "##да"
      ],
      [
        "##ни",
        "##ков"
      ],
      [
        "##н",
        "##ес"
      ],
      [
        "##ц",
        "##у"
      ],
      [
        "##ст",
        "##ра"
      ],
      [
        "по",
        "##ли"
      ],
      [
        "д",
        "##ей"
      ],
      [
        "##ль",
        "##з"
      ],
      [
        "ни",
        "##х"
      ],
      [
        "те",
        "##х"
      ],
      [
        "ху",
        "##до"
      ],
      [
        "##в",
        "##но"
      ],
      [
        "##ен",
        "##а"
      ],
      [
        "##г",
        "##ово"
      ],
      [
        "##д",
        "##ов"
      ],
      [
        "Б",
        "##о"
      ],
      [
        "##ни",
        "##ки"
      ],
      [
        "##п",
        "##ра"
      ],
      [
        "##во",
        "##р"
      ],
      [
        "об",
        "##ра"
      ],
      [
        "##те",
        "##ля"
      ],
      [
        "##р",
        "##ово"
      ],
      [
        "С",
        "##о"
      ],
      [
        "##ко",
        "##но"
      ],
      [
        "##ш",
        "##ки"
      ],
      [
        "##ти",
        "##я"
      ],
      [
        "бо",
        "##лее"
      ],
      [
        "##ем",
        "##ы"
      ],
      [
        "##и",
        "##т"
      ],
      [
        "##во",
        "##й"
      ],
      [
        "а",
        "##в"
      ],
      [
        "м",
        "##но"
      ],
      [
        "дру",
        "##го"
      ],
      [
        "г",
        "##ру"
      ],
      [
        "##ч",
        "##у"
      ],
      [
        "##те",
        "##ре"
      ],
      [
        "##ста",
        "##ви"
      ],
      [
        "##ци",
        "##аль"
      ],
      [
        "е",
        "##му"
      ],
      [
        "##при",
        "##мер"
      ],
      [
        "##ка",
        "##ми"
      ],
      [
        "об",
        "##о"
      ],
      [
        "с",
        "##ти"
      ],
      [
        "##чес",
        "##кого"
      ],
      [
        "Ч",
        "##то"
      ],
      [
        "по",
        "##мо"
      ],
      [
        "##б",
        "##ра"
      ],
      [
        "##ки",
        "##м"
      ],
      [
        "от",
        "##но"
      ],
      [
        "ка",
        "##ж"
      ],
      [
        "##м",
        "##ест"
      ],
      [
        "с",
        "##ко"
      ],
      [
        "##а",
        "##ра"
      ],
      [
        "к",
        "##то"
      ],
      [
        "##ча",
        "##с"
      ],
      [
        "Р",
        "##а"
      ],
      [
        "##к",
        "##лю"
      ],
      [
        "раз",
        "##ви"
      ],
      [
        "Н",
        "##и"
      ],
      [
        "э",
        "##к"
      ],
      [
        "##ци",
        "##он"
      ],
      [
        "##а",
        "##р"
      ],
      [
        "##с",
        "##об"
      ],
      [
        "##д",
        "##я"
      ],
      [
        "##чески",
        "##е"
      ],
      [
        "М",
        "##и"
      ],
      [
        "к",
        "##ру"
      ],
      [
        "##к",
        "##ла"
      ],
      [
        "##те",
        "##лей"
      ],
      [
        "##н",
        "##д"
      ],
      [
        "слу",
        "##ча"
      ],
      [
        "##ска",
        "##я"
      ],
      [
        "##ско",
        "##м"
      ],
      [
        "##ре",
        "##в"
      ],
      [
        "по",
        "##сле"
      ],
      [
        "г",
        "##ра"
      ],
      [
        "пра",
        "##ви"
      ],
      [
        "##ч",
        "##ки"
      ],
      [
        "##с",
        "##по"
      ],
      [
        "ис",
        "##кус"
      ],
      [
        "хо",
        "##ро"
      ],
      [
        "не",
        "##го"
      ],
      [
        "##те",
        "##ри"
      ],
      [
        "про",
        "##сто"
      ],
      [
        "##ка",
        "##х"
      ],
      [
        "##лов",
        "##и"
      ],
      [
        "##ко",
        "##н"
      ],
      [
        "##пре",
        "##де"
      ],
      [
        "в",
        "##ла"
      ],
      [
        "к",
        "##ри"
      ],
      [
        "##пи",
        "##са"
      ],
      [
        "##е",
        "##д"
      ],
      [
        "##че",
        "##го"
      ],
      [
        "с",
        "##пе"
      ],
      [
        "се",
        "##бя"
      ],
      [
        "##е",
        "##го"
      ],
      [
        "##ва",
        "##л"
      ],
      [
        "бу",
        "##ду"
      ],
      [
        "д",
        "##ень"
      ],
      [
        "##но",
        "##ви"
      ],
      [
        "##т",
        "##но"
      ],
      [
        "##м",
        "##ет"
      ],
      [
        "Росси",
        "##и"
      ],
      [
        "т",
        "##и"
      ],
      [
        "##я",
        "##ть"
      ],
      [
        "##ро",
        "##го"
      ],
      [
        "с",
        "##ка"
      ],
      [
        "Т",
        "##ак"
      ],
      [
        "на",
        "##зыва"
      ],
      [
        "сл",
        "##ово"
      ],
      [
        "по",
        "##след"
      ],
      [
        "т",
        "##ра"
      ],
      [
        "сто",
        "##ро"
      ],
      [
        "ав",
        "##то"
      ],
      [
        "##мо",
        "##жно"
      ],
      [
        "т",
        "##ер"
      ],
      [
        "ц",
        "##ен"
      ],
      [
        "##ем",
        "##о"
      ],
      [
        "б",
        "##ес"
      ],
      [
        "##пер",
        "##ь"
      ],
      [
        "Г",
        "##о"
      ],
      [
        "к",
        "##и"
      ],
      [
        "##су",
        "##дар"
      ],
      [
        "по",
        "##э"
      ],
      [
        "##ей",
        "##час"
      ],
      [
        "к",
        "##ла"
      ],
      [
        "О",
        "##д"
      ],
      [
        "все",
        "##х"
      ],
      [
        "##ше",
        "##го"
      ],
      [
        "В",
        "##е"
      ],
      [
        "##я",
        "##н"
      ],
      [
        "су",
        "##щест"
      ],
      [
        "##ну",
        "##л"
      ],
      [
        "по",
        "##з"
      ],
      [
        "г",
        "##а"
      ],
      [
        "П",
        "##ро"
      ],
      [
        "все",
        "##го"
      ],
      [
        "##бо",
        "##й"
      ],
      [
        "д",
        "##ет"
      ],
      [
        "##ц",
        "##ен"
      ],
      [
        "по",
        "##до"
      ],
      [
        "##у",
        "##р"
      ],
      [
        "с",
        "##дела"
      ],
      [
        "##ет",
        "##е"
      ],
      [
        "##ци",
        "##ю"
      ],
      [
        "которы",
        "##й"
      ],
      [
        "##коно",
        "##ми"
      ],
      [
        "##ст",
        "##е"
      ],
      [
        "с",
        "##лов"
      ],
      [
        "##ра",
        "##я"
      ],
      [
        "об",
        "##щест"
      ],
      [
        "во",
        "##т"
      ],
      [
        "к",
        "##ни"
      ],
      [
        "ор",
        "##га"
      ],
      [
        "##ч",
        "##ение"
      ],
      [
        "##ова",
        "##ния"
      ],
      [
        "жиз",
        "##ни"
      ],
      [
        "та",
        "##м"
      ],
      [
        "а",
        "##к"
      ],
      [
        "ме",
        "##жду"
      ],
      [
        "это",
        "##т"
      ],
      [
        "о",
        "##к"
      ],
      [
        "М",
        "##ы"
      ],
      [
        "на",
        "##у"
      ],
      [
        "##н",
        "##г"
      ],
      [
        "на",
        "##до"
      ],
      [
        "##з",
        "##ь"
      ],
      [
        "##д",
        "##есь"
      ],
      [
        "##ере",
        "##з"
      ],
      [
        "пере",
        "##д"
      ],
      [
        "с",
        "##мо"
      ],
      [
        "си",
        "##ст"
      ],
      [
        "л",
        "##о"
      ],
      [
        "##те",
        "##ли"
      ],
      [
        "##ста",
        "##вля"
      ],
      [
        "по",
        "##ка"
      ],
      [
        "по",
        "##ня"
      ],
      [
        "##на",
        "##ко"
      ],
      [
        "П",
        "##а"
      ],
      [
        "В",
        "##ы"
      ],
      [
        "##я",
        "##х"
      ],
      [
        "са",
        "##мы"
      ],
      [
        "##я",
        "##ви"
      ],
      [
        "##ли",
        "##к"
      ],
      [
        "сказа",
        "##л"
      ],
      [
        "Е",
        "##сли"
      ],
      [
        "##я",
        "##с"
      ],
      [
        "##ова",
        "##ть"
      ],
      [
        "П",
        "##у"
      ],
      [
        "мо",
        "##гу"
      ],
      [
        "боль",
        "##ше"
      ],
      [
        "с",
        "##ер"
      ],
      [
        "##то",
        "##ры"
      ],
      [
        "##т",
        "##ро"
      ],
      [
        "э",
        "##кономи"
      ],
      [
        "О",
        "##т"
      ],
      [
        "##д",
        "##ня"
      ],
      [
        "не",
        "##ско"
      ],
      [
        "ос",
        "##об"
      ],
      [
        "се",
        "##бе"
      ],
      [
        "##с",
        "##с"
      ],
      [
        "дей",
        "##стви"
      ],
      [
        "о",
        "##дин"
      ],
      [
        "##вы",
        "##е"
      ],
      [
        "##жест",
        "##вен"
      ],
      [
        "на",
        "##д"
      ],
      [
        "го",
        "##судар"
      ],
      [
        "ч",
        "##ер"
      ],
      [
        "вы",
        "##со"
      ],
      [
        "во",
        "##про"
      ],
      [
        "С",
        "##а"
      ],
      [
        "##щ",
        "##ей"
      ],
      [
        "##и",
        "##м"
      ],
      [
        "##ен",
        "##е"
      ],
      [
        "рабо",
        "##та"
      ],
      [
        "##мен",
        "##но"
      ],
      [
        "р",
        "##ы"
      ],
      [
        "##в",
        "##ра"
      ],
      [
        "д",
        "##ва"
      ],
      [
        "##с",
        "##но"
      ],
      [
        "поли",
        "##ти"
      ],
      [
        "##ш",
        "##ен"
      ],
      [
        "##ру",
        "##г"
      ],
      [
        "##ющи",
        "##х"
      ],
      [
        "##ж",
        "##у"
      ],
      [
        "##ши",
        "##х"
      ],
      [
        "с",
        "##ред"
      ],
      [
        "то",
        "##же"
      ],
      [
        "##з",
        "##о"
      ],
      [
        "В",
        "##се"
      ],
      [
        "##ще",
        "##го"
      ],
      [
        "##к",
        "##ре"
      ],
      [
        "жи",
        "##во"
      ],
      [
        "о",
        "##преде"
      ],
      [
        "на",
        "##м"
      ],
      [
        "зна",
        "##чи"
      ],
      [
        "О",
        "##на"
      ],
      [
        "##да",
        "##н"
      ],
      [
        "челов",
        "##ек"
      ],
      [
        "##де",
        "##ли"
      ],
      [
        "##ющи",
        "##е"
      ],
      [
        "##ло",
        "##жи"
      ],
      [
        "##ри",
        "##и"
      ],
      [
        "во",
        "##й"
      ],
      [
        "а",
        "##р"
      ],
      [
        "##ра",
        "##зи"
      ],
      [
        "н",
        "##овы"
      ],
      [
        "к",
        "##ре"
      ],
      [
        "##чески",
        "##й"
      ],
      [
        "пи",
        "##са"
      ],
      [
        "п",
        "##ло"
      ],
      [
        "ш",
        "##ко"
      ],
      [
        "##ь",
        "##ю"
      ],
      [
        "Во",
        "##т"
      ],
      [
        "гла",
        "##за"
      ],
      [
        "это",
        "##й"
      ],
      [
        "со",
        "##б"
      ],
      [
        "Л",
        "##и"
      ],
      [
        "##ла",
        "##га"
      ],
      [
        "##вы",
        "##й"
      ],
      [
        "##ж",
        "##д"
      ],
      [
        "##но",
        "##му"
      ],
      [
        "от",
        "##вет"
      ],
      [
        "##ч",
        "##ем"
      ],
      [
        "##ли",
        "##н"
      ],
      [
        "на",
        "##з"
      ],
      [
        "##де",
        "##л"
      ],
      [
        "##ли",
        "##ч"
      ],
      [
        "##то",
        "##р"
      ],
      [
        "ст",
        "##ро"
      ],
      [
        "Х",
        "##о"
      ],
      [
        "с",
        "##чита"
      ],
      [
        "##н",
        "##ет"
      ],
      [
        "не",
        "##м"
      ],
      [
        "##ем",
        "##и"
      ],
      [
        "ш",
        "##а"
      ],
      [
        "##п",
        "##ла"
      ],
      [
        "Н",
        "##у"
      ],
      [
        "##з",
        "##е"
      ],
      [
        "ко",
        "##р"
      ],
      [
        "ис",
        "##по"
      ],
      [
        "##ни",
        "##м"
      ],
      [
        "##с",
        "##ла"
      ],
      [
        "##ве",
        "##д"
      ],
      [
        "ин",
        "##тере"
      ],
      [
        "##ст",
        "##ов"
      ],
      [
        "##ша",
        "##я"
      ],
      [
        "Д",
        "##о"
      ],
      [
        "от",
        "##кры"
      ],
      [
        "##л",
        "##ли"
      ],
      [
        "не",
        "##об"
      ],
      [
        "го",
        "##ду"
      ],
      [
        "##во",
        "##д"
      ],
      [
        "по",
        "##р"
      ],
      [
        "##ро",
        "##да"
      ],
      [
        "##би",
        "##ра"
      ],
      [
        "так",
        "##же"
      ],
      [
        "##то",
        "##й"
      ],
      [
        "##к",
        "##ово"
      ],
      [
        "го",
        "##ло"
      ],
      [
        "##сту",
        "##п"
      ],
      [
        "##де",
        "##ль"
      ],
      [
        "##ность",
        "##ю"
      ],
      [
        "##I",
        "##I"
      ],
      [
        "мно",
        "##ги"
      ],
      [
        "##ва",
        "##ют"
      ],
      [
        "ли",
        "##шь"
      ],
      [
        "мо",
        "##г"
      ],
      [
        "##ш",
        "##у"
      ],
      [
        "не",
        "##й"
      ],
      [
        "##к",
        "##ти"
      ],
      [
        "на",
        "##пример"
      ],
      [
        "##л",
        "##ень"
      ],
      [
        "С",
        "##и"
      ],
      [
        "у",
        "##ча"
      ],
      [
        "л",
        "##уч"
      ],
      [
        "##не",
        "##чно"
      ],
      [
        "##ш",
        "##ения"
      ],
      [
        "по",
        "##тому"
      ],
      [
        "##ч",
        "##ет"
      ],
      [
        "р",
        "##я"
      ],
      [
        "##в",
        "##ро"
      ],
      [
        "В",
        "##а"
      ],
      [
        "полу",
        "##чи"
      ],
      [
        "##ли",
        "##з"
      ],
      [
        "по",
        "##том"
      ],
      [
        "##она",
        "##ль"
      ],
      [
        "##ли",
        "##чи"
      ],
      [
        "##ч",
        "##ения"
      ],
      [
        "##щ",
        "##ен"
      ],
      [
        "орга",
        "##ни"
      ],
      [
        "сво",
        "##ей"
      ],
      [
        "лю",
        "##дей"
      ],
      [
        "##м",
        "##ени"
      ],
      [
        "об",
        "##ла"
      ],
      [
        "##ше",
        "##л"
      ],
      [
        "##ле",
        "##з"
      ],
      [
        "##ма",
        "##ти"
      ],
      [
        "##ще",
        "##е"
      ],
      [
        "мо",
        "##ло"
      ],
      [
        "##до",
        "##л"
      ],
      [
        "ч",
        "##ерез"
      ],
      [
        "##о",
        "##т"
      ],
      [
        "##ющи",
        "##й"
      ],
      [
        "##ну",
        "##т"
      ],
      [
        "##к",
        "##ло"
      ],
      [
        "##н",
        "##ные"
      ],
      [
        "г",
        "##у"
      ],
      [
        "##чи",
        "##на"
      ],
      [
        "с",
        "##ейчас"
      ],
      [
        "ш",
        "##и"
      ],
      [
        "все",
        "##гда"
      ],
      [
        "О",
        "##ни"
      ],
      [
        "г",
        "##е"
      ],
      [
        "из",
        "##вест"
      ],
      [
        "##ш",
        "##ло"
      ],
      [
        "челове",
        "##ка"
      ],
      [
        "те",
        "##перь"
      ],
      [
        "##с",
        "##ем"
      ],
      [
        "##н",
        "##ен"
      ],
      [
        "##ва",
        "##ется"
      ],
      [
        "про",
        "##б"
      ],
      [
        "ту",
        "##т"
      ],
      [
        "з",
        "##ем"
      ],
      [
        "##ходи",
        "##т"
      ],
      [
        "##н",
        "##ю"
      ],
      [
        "рас",
        "##с"
      ],
      [
        "г",
        "##лу"
      ],
      [
        "на",
        "##род"
      ],
      [
        "##ка",
        "##н"
      ],
      [
        "##с",
        "##пе"
      ],
      [
        "##ара",
        "##к"
      ],
      [
        "спо",
        "##соб"
      ],
      [
        "б",
        "##и"
      ],
      [
        "гла",
        "##в"
      ],
      [
        "язы",
        "##ка"
      ],
      [
        "об",
        "##ы"
      ],
      [
        "И",
        "##з"
      ],
      [
        "1",
        "##8"
      ],
      [
        "##ла",
        "##го"
      ],
      [
        "неско",
        "##лько"
      ],
      [
        "с",
        "##мы"
      ],
      [
        "##ш",
        "##ли"
      ],
      [
        "та",
        "##кой"
      ],
      [
        "ни",
        "##чего"
      ],
      [
        "т",
        "##ри"
      ],
      [
        "воз",
        "##можно"
      ],
      [
        "##ди",
        "##ть"
      ],
      [
        "##ши",
        "##е"
      ],
      [
        "сво",
        "##ю"
      ],
      [
        "сов",
        "##ремен"
      ],
      [
        "из",
        "##об"
      ],
      [
        "##ра",
        "##жа"
      ],
      [
        "с",
        "##ла"
      ],
      [
        "К",
        "##у"
      ],
      [
        "у",
        "##да"
      ],
      [
        "с",
        "##вет"
      ],
      [
        "ку",
        "##ль"
      ],
      [
        "##ем",
        "##а"
      ],
      [
        "##ст",
        "##я"
      ],
      [
        "##ща",
        "##я"
      ],
      [
        "з",
        "##десь"
      ],
      [
        "##ни",
        "##х"
      ],
      [
        "х",
        "##арак"
      ],
      [
        "##п",
        "##ло"
      ],
      [
        "##ну",
        "##ла"
      ],
      [
        "##у",
        "##т"
      ],
      [
        "##х",
        "##ов"
      ],
      [
        "##ди",
        "##т"
      ],
      [
        "##не",
        "##ц"
      ],
      [
        "э",
        "##та"
      ],
      [
        "##бо",
        "##р"
      ],
      [
        "##дер",
        "##жа"
      ],
      [
        "врем",
        "##ени"
      ],
      [
        "д",
        "##рев"
      ],
      [
        "##ы",
        "##е"
      ],
      [
        "##та",
        "##ль"
      ],
      [
        "##ни",
        "##ю"
      ],
      [
        "у",
        "##по"
      ],
      [
        "други",
        "##х"
      ],
      [
        "##мо",
        "##й"
      ],
      [
        "я",
        "##вля"
      ],
      [
        "в",
        "##ся"
      ],
      [
        "##р",
        "##ю"
      ],
      [
        "##про",
        "##си"
      ],
      [
        "##но",
        "##к"
      ],
      [
        "с",
        "##ту"
      ],
      [
        "д",
        "##ву"
      ],
      [
        "которы",
        "##х"
      ],
      [
        "##ми",
        "##на"
      ],
      [
        "##ф",
        "##о"
      ],
      [
        "по",
        "##нима"
      ],
      [
        "##вши",
        "##й"
      ],
      [
        "п",
        "##ров"
      ],
      [
        "П",
        "##ет"
      ],
      [
        "##раз",
        "##у"
      ],
      [
        "##е",
        "##шь"
      ],
      [
        "о",
        "##г"
      ],
      [
        "Од",
        "##нако"
      ],
      [
        "д",
        "##ви"
      ],
      [
        "с",
        "##ло"
      ],
      [
        "ду",
        "##ма"
      ],
      [
        "е",
        "##й"
      ],
      [
        "не",
        "##ко"
      ],
      [
        "##вы",
        "##х"
      ],
      [
        "##це",
        "##в"
      ],
      [
        "и",
        "##де"
      ],
      [
        "сов",
        "##ет"
      ],
      [
        "##ци",
        "##й"
      ],
      [
        "##х",
        "##ва"
      ],
      [
        "##ско",
        "##е"
      ],
      [
        "##ль",
        "##та"
      ],
      [
        "В",
        "##и"
      ],
      [
        "ч",
        "##ет"
      ],
      [
        "##н",
        "##ер"
      ],
      [
        "##ст",
        "##ран"
      ],
      [
        "##ни",
        "##ем"
      ],
      [
        "##р",
        "##т"
      ],
      [
        "##со",
        "##м"
      ],
      [
        "в",
        "##стре"
      ],
      [
        "эти",
        "##х"
      ],
      [
        "##ст",
        "##ер"
      ],
      [
        "##ст",
        "##ей"
      ],
      [
        "де",
        "##во"
      ],
      [
        "##пи",
        "##та"
      ],
      [
        "##рова",
        "##ть"
      ],
      [
        "##т",
        "##ен"
      ],
      [
        "##л",
        "##ова"
      ],
      [
        "сво",
        "##й"
      ],
      [
        "сов",
        "##ер"
      ],
      [
        "##ш",
        "##ение"
      ],
      [
        "пи",
        "##сь"
      ],
      [
        "со",
        "##об"
      ],
      [
        "##ро",
        "##е"
      ],
      [
        "про",
        "##ис"
      ],
      [
        "с",
        "##ме"
      ],
      [
        "у",
        "##чи"
      ],
      [
        "в",
        "##мест"
      ],
      [
        "##т",
        "##ки"
      ],
      [
        "##сси",
        "##й"
      ],
      [
        "##г",
        "##ов"
      ],
      [
        "##ра",
        "##бо"
      ],
      [
        "##й",
        "##ти"
      ],
      [
        "##сть",
        "##ю"
      ],
      [
        "ста",
        "##л"
      ],
      [
        "се",
        "##го"
      ],
      [
        "##тре",
        "##б"
      ],
      [
        "##ы",
        "##х"
      ],
      [
        "худо",
        "##жествен"
      ],
      [
        "дол",
        "##ж"
      ],
      [
        "##ли",
        "##я"
      ],
      [
        "куль",
        "##ту"
      ],
      [
        "##до",
        "##й"
      ],
      [
        "чи",
        "##та"
      ],
      [
        "го",
        "##лов"
      ],
      [
        "##ши",
        "##й"
      ],
      [
        "то",
        "##гда"
      ],
      [
        "##ь",
        "##я"
      ],
      [
        "д",
        "##ере"
      ],
      [
        "##ц",
        "##ес"
      ],
      [
        "##л",
        "##ё"
      ],
      [
        "жиз",
        "##нь"
      ],
      [
        "##ча",
        "##ет"
      ],
      [
        "вс",
        "##ё"
      ],
      [
        "до",
        "##ро"
      ],
      [
        "о",
        "##каза"
      ],
      [
        "##ст",
        "##ве"
      ],
      [
        "сего",
        "##дня"
      ],
      [
        "о",
        "##п"
      ],
      [
        "с",
        "##ем"
      ],
      [
        "лю",
        "##ди"
      ],
      [
        "н",
        "##ово"
      ],
      [
        "проб",
        "##лем"
      ],
      [
        "п",
        "##ря"
      ],
      [
        "##си",
        "##т"
      ],
      [
        "пер",
        "##во"
      ],
      [
        "##бу",
        "##дь"
      ],
      [
        "##ч",
        "##ной"
      ],
      [
        "соб",
        "##ствен"
      ],
      [
        "ве",
        "##ли"
      ],
      [
        "##ств",
        "##ова"
      ],
      [
        "##не",
        "##го"
      ],
      [
        "ма",
        "##тери"
      ],
      [
        "##ну",
        "##ть"
      ],
      [
        "з",
        "##о"
      ],
      [
        "мест",
        "##о"
      ],
      [
        "##ти",
        "##е"
      ],
      [
        "##ду",
        "##ма"
      ],
      [
        "##к",
        "##ова"
      ],
      [
        "##ш",
        "##ла"
      ],
      [
        "##чест",
        "##во"
      ],
      [
        "##д",
        "##ова"
      ],
      [
        "##з",
        "##м"
      ],
      [
        "##ру",
        "##к"
      ],
      [
        "ис",
        "##след"
      ],
      [
        "ле",
        "##г"
      ],
      [
        "##м",
        "##ни"
      ],
      [
        "##ч",
        "##ку"
      ],
      [
        "##ве",
        "##дения"
      ],
      [
        "##ря",
        "##д"
      ],
      [
        "##ме",
        "##ри"
      ],
      [
        "кото",
        "##рая"
      ],
      [
        "##па",
        "##с"
      ],
      [
        "са",
        "##м"
      ],
      [
        "од",
        "##но"
      ],
      [
        "в",
        "##то"
      ],
      [
        "##н",
        "##ем"
      ],
      [
        "##ро",
        "##т"
      ],
      [
        "##те",
        "##м"
      ],
      [
        "ни",
        "##будь"
      ],
      [
        "##ски",
        "##м"
      ],
      [
        "##ри",
        "##я"
      ],
      [
        "##ре",
        "##ди"
      ],
      [
        "свои",
        "##х"
      ],
      [
        "с",
        "##ы"
      ],
      [
        "##н",
        "##ный"
      ],
      [
        "##н",
        "##ных"
      ],
      [
        "##ка",
        "##зыва"
      ],
      [
        "хо",
        "##тя"
      ],
      [
        "##я",
        "##в"
      ],
      [
        "##й",
        "##те"
      ],
      [
        "##да",
        "##ть"
      ],
      [
        "##чес",
        "##кая"
      ],
      [
        "сле",
        "##ду"
      ],
      [
        "могу",
        "##т"
      ],
      [
        "##зу",
        "##льта"
      ],
      [
        "2",
        "##00"
      ],
      [
        "##с",
        "##лу"
      ],
      [
        "у",
        "##ста"
      ],
      [
        "##з",
        "##ма"
      ],
      [
        "##ча",
        "##ла"
      ],
      [
        "##н",
        "##к"
      ],
      [
        "ф",
        "##о"
      ],
      [
        "##н",
        "##ти"
      ],
      [
        "то",
        "##т"
      ],
      [
        "поч",
        "##ти"
      ],
      [
        "п",
        "##рав"
      ],
      [
        "з",
        "##ву"
      ],
      [
        "Т",
        "##е"
      ],
      [
        "у",
        "##ви"
      ],
      [
        "и",
        "##менно"
      ],
      [
        "##ж",
        "##ения"
      ],
      [
        "##сти",
        "##ту"
      ],
      [
        "за",
        "##да"
      ],
      [
        "##ци",
        "##али"
      ],
      [
        "##з",
        "##я"
      ],
      [
        "то",
        "##р"
      ],
      [
        "ро",
        "##ссий"
      ],
      [
        "ус",
        "##пе"
      ],
      [
        "де",
        "##ло"
      ],
      [
        "##мен",
        "##т"
      ],
      [
        "боль",
        "##шо"
      ],
      [
        "ни",
        "##м"
      ],
      [
        "при",
        "##н"
      ],
      [
        "ре",
        "##ши"
      ],
      [
        "од",
        "##ной"
      ],
      [
        "##вши",
        "##е"
      ],
      [
        "кото",
        "##рой"
      ],
      [
        "##сту",
        "##па"
      ],
      [
        "про",
        "##дол"
      ],
      [
        "до",
        "##ма"
      ],
      [
        "Г",
        "##а"
      ],
      [
        "##фор",
        "##ма"
      ],
      [
        "сов",
        "##сем"
      ],
      [
        "##гра",
        "##м"
      ],
      [
        "##х",
        "##у"
      ],
      [
        "при",
        "##ня"
      ],
      [
        "##зи",
        "##ден"
      ],
      [
        "##х",
        "##ра"
      ],
      [
        "ко",
        "##л"
      ],
      [
        "чу",
        "##в"
      ],
      [
        "Р",
        "##у"
      ],
      [
        "б",
        "##лаго"
      ],
      [
        "##ру",
        "##ю"
      ],
      [
        "в",
        "##не"
      ],
      [
        "##ва",
        "##ла"
      ],
      [
        "те",
        "##бя"
      ],
      [
        "Д",
        "##е"
      ],
      [
        "##д",
        "##ца"
      ],
      [
        "с",
        "##те"
      ],
      [
        "го",
        "##р"
      ],
      [
        "необ",
        "##ходи"
      ],
      [
        "##ф",
        "##а"
      ],
      [
        "Б",
        "##а"
      ],
      [
        "по",
        "##каза"
      ],
      [
        "ре",
        "##зульта"
      ],
      [
        "ж",
        "##ен"
      ],
      [
        "##до",
        "##б"
      ],
      [
        "друго",
        "##й"
      ],
      [
        "ка",
        "##кой"
      ],
      [
        "у",
        "##ни"
      ],
      [
        "гово",
        "##ря"
      ],
      [
        "рас",
        "##ска"
      ],
      [
        "т",
        "##я"
      ],
      [
        "ми",
        "##р"
      ],
      [
        "и",
        "##но"
      ],
      [
        "##н",
        "##т"
      ],
      [
        "##щ",
        "##ения"
      ],
      [
        "##ни",
        "##ца"
      ],
      [
        "##ци",
        "##ональ"
      ],
      [
        "##вши",
        "##х"
      ],
      [
        "##я",
        "##сь"
      ],
      [
        "ма",
        "##лень"
      ],
      [
        "2",
        "##0"
      ],
      [
        "то",
        "##л"
      ],
      [
        "про",
        "##цес"
      ],
      [
        "##жа",
        "##л"
      ],
      [
        "Ко",
        "##гда"
      ],
      [
        "##ство",
        "##м"
      ],
      [
        "во",
        "##об"
      ],
      [
        "Мо",
        "##ск"
      ],
      [
        "##за",
        "##ции"
      ],
      [
        "про",
        "##тив"
      ],
      [
        "Т",
        "##ы"
      ],
      [
        "##ж",
        "##дения"
      ],
      [
        "##гра",
        "##фи"
      ],
      [
        "##е",
        "##ль"
      ],
      [
        "##пе",
        "##ра"
      ],
      [
        "##г",
        "##ре"
      ],
      [
        "ка",
        "##р"
      ],
      [
        "в",
        "##ремен"
      ],
      [
        "ты",
        "##ся"
      ],
      [
        "##ти",
        "##во"
      ],
      [
        "язы",
        "##ке"
      ],
      [
        "##льз",
        "##ова"
      ],
      [
        "пре",
        "##ж"
      ],
      [
        "ни",
        "##ка"
      ],
      [
        "##об",
        "##раз"
      ],
      [
        "##щи",
        "##х"
      ],
      [
        "литерату",
        "##р"
      ],
      [
        "##пра",
        "##ви"
      ],
      [
        "б",
        "##ро"
      ],
      [
        "ос",
        "##нов"
      ],
      [
        "бу",
        "##д"
      ],
      [
        "не",
        "##о"
      ],
      [
        "И",
        "##н"
      ],
      [
        "б",
        "##ра"
      ],
      [
        "вы",
        "##раж"
      ],
      [
        "##то",
        "##к"
      ],
      [
        "ка",
        "##рти"
      ],
      [
        "о",
        "##но"
      ],
      [
        "т",
        "##вор"
      ],
      [
        "##ра",
        "##ми"
      ],
      [
        "##чес",
        "##кое"
      ],
      [
        "##ль",
        "##ные"
      ],
      [
        "наз",
        "##ва"
      ],
      [
        "п",
        "##ы"
      ],
      [
        "со",
        "##гла"
      ],
      [
        "ну",
        "##жно"
      ],
      [
        "гру",
        "##п"
      ],
      [
        "То",
        "##лик"
      ],
      [
        "ф",
        "##а"
      ],
      [
        "хоро",
        "##шо"
      ],
      [
        "ли",
        "##бо"
      ],
      [
        "ва",
        "##с"
      ],
      [
        "##т",
        "##вер"
      ],
      [
        "##ту",
        "##а"
      ],
      [
        "свя",
        "##за"
      ],
      [
        "И",
        "##ва"
      ],
      [
        "##ро",
        "##де"
      ],
      [
        "ли",
        "##ц"
      ],
      [
        "лю",
        "##би"
      ],
      [
        "##н",
        "##ения"
      ],
      [
        "ста",
        "##ли"
      ],
      [
        "вз",
        "##гля"
      ],
      [
        "худо",
        "##ж"
      ],
      [
        "##ч",
        "##ные"
      ],
      [
        "вс",
        "##ем"
      ],
      [
        "##ч",
        "##ных"
      ],
      [
        "##ч",
        "##ный"
      ],
      [
        "в",
        "##нима"
      ],
      [
        "##на",
        "##х"
      ],
      [
        "при",
        "##мер"
      ],
      [
        "ро",
        "##ди"
      ],
      [
        "поз",
        "##во"
      ],
      [
        "р",
        "##и"
      ],
      [
        "##ли",
        "##во"
      ],
      [
        "сво",
        "##е"
      ],
      [
        "##д",
        "##руг"
      ],
      [
        "во",
        "##л"
      ],
      [
        "К",
        "##и"
      ],
      [
        "##н",
        "##ной"
      ],
      [
        "сво",
        "##его"
      ],
      [
        "##и",
        "##л"
      ],
      [
        "че",
        "##го"
      ],
      [
        "П",
        "##ер"
      ],
      [
        "##щи",
        "##й"
      ],
      [
        "на",
        "##чина"
      ],
      [
        "ст",
        "##ран"
      ],
      [
        "не",
        "##с"
      ],
      [
        "##лы",
        "##й"
      ],
      [
        "##лы",
        "##ша"
      ],
      [
        "##с",
        "##са"
      ],
      [
        "##ят",
        "##ся"
      ],
      [
        "##ти",
        "##н"
      ],
      [
        "ко",
        "##нечно"
      ],
      [
        "##ра",
        "##х"
      ],
      [
        "с",
        "##пи"
      ],
      [
        "##во",
        "##з"
      ],
      [
        "##ль",
        "##ный"
      ],
      [
        "##чест",
        "##ва"
      ],
      [
        "##ча",
        "##ть"
      ],
      [
        "та",
        "##кие"
      ],
      [
        "язы",
        "##к"
      ],
      [
        "О",
        "##б"
      ],
      [
        "##ши",
        "##н"
      ],
      [
        "##ти",
        "##й"
      ],
      [
        "при",
        "##зна"
      ],
      [
        "##б",
        "##лю"
      ],
      [
        "##ло",
        "##й"
      ],
      [
        "ши",
        "##ро"
      ],
      [
        "##щ",
        "##ё"
      ],
      [
        "##с",
        "##кую"
      ],
      [
        "ни",
        "##ко"
      ],
      [
        "де",
        "##ся"
      ],
      [
        "##ру",
        "##жи"
      ],
      [
        "##м",
        "##ети"
      ],
      [
        "##ч",
        "##ер"
      ],
      [
        "X",
        "##V"
      ],
      [
        "с",
        "##па"
      ],
      [
        "##т",
        "##ру"
      ],
      [
        "С",
        "##та"
      ],
      [
        "те",
        "##ле"
      ],
      [
        "Л",
        "##е"
      ],
      [
        "с",
        "##проси"
      ],
      [
        "##щ",
        "##ение"
      ],
      [
        "##ль",
        "##зу"
      ],
      [
        "##тель",
        "##ности"
      ],
      [
        "ве",
        "##дь"
      ],
      [
        "##у",
        "##м"
      ],
      [
        "##ди",
        "##ви"
      ],
      [
        "г",
        "##и"
      ],
      [
        "##ж",
        "##ды"
      ],
      [
        "од",
        "##на"
      ],
      [
        "##е",
        "##л"
      ],
      [
        "##ф",
        "##ес"
      ],
      [
        "##го",
        "##тов"
      ],
      [
        "и",
        "##гра"
      ],
      [
        "до",
        "##б"
      ],
      [
        "ф",
        "##ак"
      ],
      [
        "Р",
        "##е"
      ],
      [
        "##о",
        "##логи"
      ],
      [
        "##ше",
        "##е"
      ],
      [
        "сказа",
        "##ть"
      ],
      [
        "э",
        "##ту"
      ],
      [
        "те",
        "##бе"
      ],
      [
        "сто",
        "##я"
      ],
      [
        "други",
        "##е"
      ],
      [
        "##ль",
        "##ных"
      ],
      [
        "##сто",
        "##й"
      ],
      [
        "##от",
        "##вет"
      ],
      [
        "##в",
        "##ле"
      ],
      [
        "##е",
        "##ха"
      ],
      [
        "в",
        "##ес"
      ],
      [
        "##м",
        "##я"
      ],
      [
        "про",
        "##тиво"
      ],
      [
        "но",
        "##р"
      ],
      [
        "##ва",
        "##ться"
      ],
      [
        "##тель",
        "##ные"
      ],
      [
        "с",
        "##разу"
      ],
      [
        "##щ",
        "##у"
      ],
      [
        "не",
        "##по"
      ],
      [
        "##во",
        "##лю"
      ],
      [
        "б",
        "##ан"
      ],
      [
        "на",
        "##стоя"
      ],
      [
        "##ча",
        "##т"
      ],
      [
        "ц",
        "##и"
      ],
      [
        "##ж",
        "##ение"
      ],
      [
        "в",
        "##ра"
      ],
      [
        "##ра",
        "##ви"
      ],
      [
        "##та",
        "##ми"
      ],
      [
        "на",
        "##уч"
      ],
      [
        "говори",
        "##т"
      ],
      [
        "##ни",
        "##ть"
      ],
      [
        "##тель",
        "##ный"
      ],
      [
        "Д",
        "##ля"
      ],
      [
        "со",
        "##стоя"
      ],
      [
        "##лы",
        "##е"
      ],
      [
        "на",
        "##писа"
      ],
      [
        "сво",
        "##бо"
      ],
      [
        "ста",
        "##ло"
      ],
      [
        "объ",
        "##яс"
      ],
      [
        "##н",
        "##но"
      ],
      [
        "##кто",
        "##р"
      ],
      [
        "пре",
        "##зиден"
      ],
      [
        "в",
        "##есь"
      ],
      [
        "##ш",
        "##ую"
      ],
      [
        "##ль",
        "##чи"
      ],
      [
        "##вши",
        "##сь"
      ],
      [
        "##сту",
        "##пи"
      ],
      [
        "неко",
        "##торы"
      ],
      [
        "г",
        "##ре"
      ],
      [
        "##на",
        "##ми"
      ],
      [
        "##р",
        "##та"
      ],
      [
        "на",
        "##ходи"
      ],
      [
        "Л",
        "##ю"
      ],
      [
        "##ча",
        "##л"
      ],
      [
        "ц",
        "##вет"
      ],
      [
        "ж",
        "##а"
      ],
      [
        "##га",
        "##зи"
      ],
      [
        "искус",
        "##ства"
      ],
      [
        "на",
        "##и"
      ],
      [
        "##дет",
        "##ь"
      ],
      [
        "п",
        "##рово"
      ],
      [
        "ва",
        "##ж"
      ],
      [
        "по",
        "##бе"
      ],
      [
        "за",
        "##ко"
      ],
      [
        "бы",
        "##стро"
      ],
      [
        "дву",
        "##х"
      ],
      [
        "##щ",
        "##ем"
      ],
      [
        "сто",
        "##л"
      ],
      [
        "пра",
        "##кти"
      ],
      [
        "##и",
        "##ть"
      ],
      [
        "##ф",
        "##е"
      ],
      [
        "##ти",
        "##ть"
      ],
      [
        "##щи",
        "##е"
      ],
      [
        "буду",
        "##т"
      ],
      [
        "##я",
        "##за"
      ],
      [
        "случа",
        "##е"
      ],
      [
        "оч",
        "##ере"
      ],
      [
        "особ",
        "##енно"
      ],
      [
        "ог",
        "##ром"
      ],
      [
        "и",
        "##г"
      ],
      [
        "па",
        "##р"
      ],
      [
        "я",
        "##в"
      ],
      [
        "##л",
        "##ла"
      ],
      [
        "у",
        "##г"
      ],
      [
        "п",
        "##ес"
      ],
      [
        "стра",
        "##ны"
      ],
      [
        "за",
        "##нима"
      ],
      [
        "##пу",
        "##сти"
      ],
      [
        "##ё",
        "##м"
      ],
      [
        "##ну",
        "##лся"
      ],
      [
        "##ль",
        "##ной"
      ],
      [
        "с",
        "##ви"
      ],
      [
        "##ты",
        "##й"
      ],
      [
        "го",
        "##тов"
      ],
      [
        "##ши",
        "##м"
      ],
      [
        "ро",
        "##д"
      ],
      [
        "ми",
        "##ну"
      ],
      [
        "е",
        "##ё"
      ],
      [
        "##д",
        "##ви"
      ],
      [
        "рабо",
        "##ты"
      ],
      [
        "##ров",
        "##и"
      ],
      [
        "д",
        "##ве"
      ],
      [
        "кото",
        "##рого"
      ],
      [
        "та",
        "##кое"
      ],
      [
        "##зи",
        "##и"
      ],
      [
        "к",
        "##ры"
      ],
      [
        "##ет",
        "##ь"
      ],
      [
        "##ва",
        "##лись"
      ],
      [
        "бо",
        "##га"
      ],
      [
        "##мо",
        "##м"
      ],
      [
        "##вы",
        "##м"
      ],
      [
        "ча",
        "##сто"
      ],
      [
        "д",
        "##ер"
      ],
      [
        "##ли",
        "##й"
      ],
      [
        "про",
        "##фес"
      ],
      [
        "хо",
        "##те"
      ],
      [
        "сказа",
        "##ла"
      ],
      [
        "не",
        "##е"
      ],
      [
        "сторо",
        "##ны"
      ],
      [
        "у",
        "##чен"
      ],
      [
        "##ко",
        "##ло"
      ],
      [
        "ре",
        "##аль"
      ],
      [
        "со",
        "##л"
      ],
      [
        "##тель",
        "##ных"
      ],
      [
        "##ест",
        "##и"
      ],
      [
        "па",
        "##рти"
      ],
      [
        "да",
        "##ль"
      ],
      [
        "ми",
        "##ни"
      ],
      [
        "##я",
        "##вля"
      ],
      [
        "##ро",
        "##ме"
      ],
      [
        "##ка",
        "##м"
      ],
      [
        "бу",
        "##к"
      ],
      [
        "##на",
        "##ли"
      ],
      [
        "##льз",
        "##я"
      ],
      [
        "##тель",
        "##ства"
      ],
      [
        "на",
        "##прав"
      ],
      [
        "пред",
        "##стави"
      ],
      [
        "образ",
        "##ом"
      ],
      [
        "ус",
        "##лови"
      ],
      [
        "ста",
        "##ть"
      ],
      [
        "вооб",
        "##ще"
      ],
      [
        "по",
        "##яви"
      ],
      [
        "##ь",
        "##е"
      ],
      [
        "##ход",
        "##я"
      ],
      [
        "э",
        "##по"
      ],
      [
        "##я",
        "##ми"
      ],
      [
        "##ран",
        "##цу"
      ],
      [
        "произ",
        "##ведения"
      ],
      [
        "вмест",
        "##е"
      ],
      [
        "на",
        "##ш"
      ],
      [
        "##ч",
        "##ета"
      ],
      [
        "со",
        "##ответ"
      ],
      [
        "го",
        "##род"
      ],
      [
        "общест",
        "##вен"
      ],
      [
        "с",
        "##ю"
      ],
      [
        "по",
        "##хо"
      ],
      [
        "вла",
        "##сти"
      ],
      [
        "##ро",
        "##с"
      ],
      [
        "образ",
        "##ова"
      ],
      [
        "Б",
        "##у"
      ],
      [
        "##с",
        "##ова"
      ],
      [
        "со",
        "##бой"
      ],
      [
        "##бо",
        "##ль"
      ],
      [
        "го",
        "##д"
      ],
      [
        "По",
        "##э"
      ],
      [
        "за",
        "##ви"
      ],
      [
        "со",
        "##циаль"
      ],
      [
        "ру",
        "##ково"
      ],
      [
        "дру",
        "##г"
      ],
      [
        "ма",
        "##гази"
      ],
      [
        "Б",
        "##ы"
      ],
      [
        "Г",
        "##ла"
      ],
      [
        "##мо",
        "##т"
      ],
      [
        "##ты",
        "##е"
      ],
      [
        "у",
        "##ров"
      ],
      [
        "##ри",
        "##ть"
      ],
      [
        "А",
        "##н"
      ],
      [
        "##ф",
        "##ф"
      ],
      [
        "##к",
        "##ри"
      ],
      [
        "пере",
        "##да"
      ],
      [
        "явля",
        "##ется"
      ],
      [
        "в",
        "##друг"
      ],
      [
        "те",
        "##к"
      ],
      [
        "луч",
        "##ше"
      ],
      [
        "с",
        "##нова"
      ],
      [
        "ми",
        "##ра"
      ],
      [
        "##ж",
        "##ем"
      ],
      [
        "до",
        "##ста"
      ],
      [
        "про",
        "##грам"
      ],
      [
        "са",
        "##ми"
      ],
      [
        "од",
        "##ного"
      ],
      [
        "X",
        "##I"
      ],
      [
        "##тель",
        "##ной"
      ],
      [
        "си",
        "##туа"
      ],
      [
        "##ву",
        "##ю"
      ],
      [
        "га",
        "##з"
      ],
      [
        "ко",
        "##ро"
      ],
      [
        "ком",
        "##п"
      ],
      [
        "##во",
        "##е"
      ],
      [
        "ма",
        "##льчи"
      ],
      [
        "##ре",
        "##й"
      ],
      [
        "##ш",
        "##но"
      ],
      [
        "значи",
        "##т"
      ],
      [
        "##но",
        "##логи"
      ],
      [
        "не",
        "##до"
      ],
      [
        "##ки",
        "##ми"
      ],
      [
        "раз",
        "##лич"
      ],
      [
        "##пы",
        "##т"
      ],
      [
        "##п",
        "##ей"
      ],
      [
        "на",
        "##шей"
      ],
      [
        "А",
        "##лек"
      ],
      [
        "де",
        "##я"
      ],
      [
        "л",
        "##ес"
      ],
      [
        "Н",
        "##ет"
      ],
      [
        "##ни",
        "##цы"
      ],
      [
        "##па",
        "##д"
      ],
      [
        "е",
        "##щё"
      ],
      [
        "##ы",
        "##й"
      ],
      [
        "дела",
        "##ть"
      ],
      [
        "пре",
        "##кра"
      ],
      [
        "дол",
        "##го"
      ],
      [
        "харак",
        "##тер"
      ],
      [
        "##на",
        "##н"
      ],
      [
        "прин",
        "##ци"
      ],
      [
        "а",
        "##д"
      ],
      [
        "то",
        "##му"
      ],
      [
        "##жа",
        "##ть"
      ],
      [
        "помо",
        "##щ"
      ],
      [
        "##ш",
        "##ку"
      ],
      [
        "нико",
        "##гда"
      ],
      [
        "М",
        "##е"
      ],
      [
        "С",
        "##ов"
      ],
      [
        "##ы",
        "##м"
      ],
      [
        "##ра",
        "##м"
      ],
      [
        "##по",
        "##мина"
      ],
      [
        "ком",
        "##на"
      ],
      [
        "##ду",
        "##к"
      ],
      [
        "ос",
        "##но"
      ],
      [
        "Ра",
        "##з"
      ],
      [
        "г",
        "##ро"
      ],
      [
        "##чески",
        "##м"
      ],
      [
        "Ч",
        "##е"
      ],
      [
        "##ци",
        "##ей"
      ],
      [
        "та",
        "##ких"
      ],
      [
        "поч",
        "##ему"
      ],
      [
        "##с",
        "##ков"
      ],
      [
        "кон",
        "##це"
      ],
      [
        "е",
        "##ди"
      ],
      [
        "ве",
        "##ка"
      ],
      [
        "ва",
        "##м"
      ],
      [
        "не",
        "##у"
      ],
      [
        "##тель",
        "##ного"
      ],
      [
        "##ри",
        "##т"
      ],
      [
        "об",
        "##яза"
      ],
      [
        "##мен",
        "##та"
      ],
      [
        "б",
        "##ере"
      ],
      [
        "у",
        "##го"
      ],
      [
        "ма",
        "##ло"
      ],
      [
        "пред",
        "##лож"
      ],
      [
        "до",
        "##м"
      ],
      [
        "истори",
        "##и"
      ],
      [
        "ре",
        "##чи"
      ],
      [
        "##п",
        "##ов"
      ],
      [
        "вз",
        "##я"
      ],
      [
        "##гово",
        "##р"
      ],
      [
        "кру",
        "##п"
      ],
      [
        "##ко",
        "##нец"
      ],
      [
        "##во",
        "##ди"
      ],
      [
        "ди",
        "##а"
      ],
      [
        "##вест",
        "##и"
      ],
      [
        "спе",
        "##циаль"
      ],
      [
        "##ро",
        "##к"
      ],
      [
        "за",
        "##ме"
      ],
      [
        "##чи",
        "##ть"
      ],
      [
        "с",
        "##рав"
      ],
      [
        "каж",
        "##ды"
      ],
      [
        "##мо",
        "##тре"
      ],
      [
        "ге",
        "##ро"
      ],
      [
        "##ст",
        "##рой"
      ],
      [
        "ч",
        "##ис"
      ],
      [
        "##ю",
        "##щей"
      ],
      [
        "##ли",
        "##ча"
      ],
      [
        "про",
        "##ек"
      ],
      [
        "по",
        "##па"
      ],
      [
        "ма",
        "##ма"
      ],
      [
        "свои",
        "##м"
      ],
      [
        "пе",
        "##ри"
      ],
      [
        "исслед",
        "##ова"
      ],
      [
        "Е",
        "##вро"
      ],
      [
        "##жи",
        "##т"
      ],
      [
        "ку",
        "##да"
      ],
      [
        "ком",
        "##па"
      ],
      [
        "В",
        "##ла"
      ],
      [
        "##ти",
        "##л"
      ],
      [
        "##за",
        "##д"
      ],
      [
        "до",
        "##сти"
      ],
      [
        "ре",
        "##з"
      ],
      [
        "С",
        "##у"
      ],
      [
        "ф",
        "##у"
      ],
      [
        "А",
        "##нд"
      ],
      [
        "ф",
        "##ранцу"
      ],
      [
        "##к",
        "##си"
      ],
      [
        "об",
        "##и"
      ],
      [
        "##жи",
        "##ва"
      ],
      [
        "э",
        "##лек"
      ],
      [
        "из",
        "##мен"
      ],
      [
        "##ль",
        "##ного"
      ],
      [
        "##т",
        "##ных"
      ],
      [
        "тра",
        "##ди"
      ],
      [
        "упо",
        "##треб"
      ],
      [
        "д",
        "##ово"
      ],
      [
        "м",
        "##ета"
      ],
      [
        "м",
        "##я"
      ],
      [
        "ко",
        "##с"
      ],
      [
        "живо",
        "##пи"
      ],
      [
        "г",
        "##раж"
      ],
      [
        "##С",
        "##С"
      ],
      [
        "##ри",
        "##й"
      ],
      [
        "мо",
        "##л"
      ],
      [
        "##су",
        "##т"
      ],
      [
        "С",
        "##ер"
      ],
      [
        "ме",
        "##д"
      ],
      [
        "##стви",
        "##е"
      ],
      [
        "##н",
        "##ка"
      ],
      [
        "эти",
        "##м"
      ],
      [
        "у",
        "##бе"
      ],
      [
        "##ё",
        "##т"
      ],
      [
        "пра",
        "##во"
      ],
      [
        "##вен",
        "##но"
      ],
      [
        "хо",
        "##зя"
      ],
      [
        "со",
        "##бы"
      ],
      [
        "ст",
        "##ре"
      ],
      [
        "ча",
        "##сть"
      ],
      [
        "по",
        "##жа"
      ],
      [
        "##ж",
        "##ден"
      ],
      [
        "##ту",
        "##р"
      ],
      [
        "##и",
        "##мо"
      ],
      [
        "на",
        "##зад"
      ],
      [
        "от",
        "##ве"
      ],
      [
        "са",
        "##ма"
      ],
      [
        "с",
        "##вер"
      ],
      [
        "##е",
        "##е"
      ],
      [
        "не",
        "##ме"
      ],
      [
        "На",
        "##пример"
      ],
      [
        "вопро",
        "##с"
      ],
      [
        "дол",
        "##жен"
      ],
      [
        "у",
        "##зна"
      ],
      [
        "##ду",
        "##т"
      ],
      [
        "ру",
        "##ки"
      ],
      [
        "М",
        "##не"
      ],
      [
        "П",
        "##и"
      ],
      [
        "##тель",
        "##ное"
      ],
      [
        "с",
        "##ку"
      ],
      [
        "жен",
        "##щи"
      ],
      [
        "##я",
        "##м"
      ],
      [
        "ка",
        "##за"
      ],
      [
        "ма",
        "##ши"
      ],
      [
        "пред",
        "##став"
      ],
      [
        "подо",
        "##б"
      ],
      [
        "рас",
        "##по"
      ],
      [
        "##мери",
        "##кан"
      ],
      [
        "ко",
        "##ман"
      ],
      [
        "##пу",
        "##ска"
      ],
      [
        "с",
        "##мер"
      ],
      [
        "##ч",
        "##ного"
      ],
      [
        "о",
        "##кон"
      ],
      [
        "##б",
        "##ря"
      ],
      [
        "мест",
        "##а"
      ],
      [
        "##ен",
        "##ы"
      ],
      [
        "не",
        "##за"
      ],
      [
        "##ты",
        "##х"
      ],
      [
        "##хо",
        "##т"
      ],
      [
        "пред",
        "##по"
      ],
      [
        "разви",
        "##тия"
      ],
      [
        "##фф",
        "##ек"
      ],
      [
        "##ва",
        "##ются"
      ],
      [
        "##ер",
        "##т"
      ],
      [
        "ста",
        "##нови"
      ],
      [
        "##гра",
        "##ни"
      ],
      [
        "##в",
        "##шего"
      ],
      [
        "пред",
        "##ставля"
      ],
      [
        "1",
        "##5"
      ],
      [
        "##з",
        "##ов"
      ],
      [
        "##ю",
        "##щего"
      ],
      [
        "##лен",
        "##ные"
      ],
      [
        "с",
        "##лож"
      ],
      [
        "у",
        "##че"
      ],
      [
        "е",
        "##дин"
      ],
      [
        "ми",
        "##лли"
      ],
      [
        "Поэ",
        "##тому"
      ],
      [
        "Б",
        "##е"
      ],
      [
        "##ка",
        "##д"
      ],
      [
        "ча",
        "##ст"
      ],
      [
        "ча",
        "##сти"
      ],
      [
        "многи",
        "##е"
      ],
      [
        "##ди",
        "##на"
      ],
      [
        "##ест",
        "##ь"
      ],
      [
        "##н",
        "##ная"
      ],
      [
        "на",
        "##де"
      ],
      [
        "##е",
        "##ви"
      ],
      [
        "##п",
        "##ря"
      ],
      [
        "ви",
        "##д"
      ],
      [
        "ин",
        "##форма"
      ],
      [
        "ж",
        "##ур"
      ],
      [
        "##ва",
        "##лся"
      ],
      [
        "##ди",
        "##и"
      ],
      [
        "со",
        "##хра"
      ],
      [
        "у",
        "##ч"
      ],
      [
        "во",
        "##ен"
      ],
      [
        "ме",
        "##то"
      ],
      [
        "##жд",
        "##ение"
      ],
      [
        "к",
        "##ва"
      ],
      [
        "у",
        "##ли"
      ],
      [
        "##н",
        "##ки"
      ],
      [
        "Во",
        "##з"
      ],
      [
        "##н",
        "##ение"
      ],
      [
        "не",
        "##льзя"
      ],
      [
        "##ова",
        "##ри"
      ],
      [
        "мо",
        "##р"
      ],
      [
        "##ш",
        "##ест"
      ],
      [
        "день",
        "##ги"
      ],
      [
        "вы",
        "##с"
      ],
      [
        "необходи",
        "##мо"
      ],
      [
        "##тру",
        "##д"
      ],
      [
        "фор",
        "##ма"
      ],
      [
        "##п",
        "##ере"
      ],
      [
        "##Ш",
        "##А"
      ],
      [
        "зна",
        "##чение"
      ],
      [
        "Л",
        "##а"
      ],
      [
        "##л",
        "##ении"
      ],
      [
        "##ю",
        "##сь"
      ],
      [
        "##чи",
        "##т"
      ],
      [
        "па",
        "##м"
      ],
      [
        "##кра",
        "##ти"
      ],
      [
        "##н",
        "##ного"
      ],
      [
        "само",
        "##м"
      ],
      [
        "Ма",
        "##р"
      ],
      [
        "с",
        "##на"
      ],
      [
        "воз",
        "##ник"
      ],
      [
        "С",
        "##ША"
      ],
      [
        "смы",
        "##с"
      ],
      [
        "б",
        "##ю"
      ],
      [
        "##ер",
        "##ы"
      ],
      [
        "ни",
        "##кто"
      ],
      [
        "##лен",
        "##а"
      ],
      [
        "сдела",
        "##ть"
      ],
      [
        "##чес",
        "##кую"
      ],
      [
        "о",
        "##зна"
      ],
      [
        "государ",
        "##ствен"
      ],
      [
        "##л",
        "##ки"
      ],
      [
        "по",
        "##стоя"
      ],
      [
        "же",
        "##ла"
      ],
      [
        "рас",
        "##про"
      ],
      [
        "интере",
        "##с"
      ],
      [
        "ра",
        "##ди"
      ],
      [
        "По",
        "##д"
      ],
      [
        "многи",
        "##х"
      ],
      [
        "л",
        "##у"
      ],
      [
        "##н",
        "##ным"
      ],
      [
        "##ко",
        "##му"
      ],
      [
        "##ь",
        "##ез"
      ],
      [
        "ос",
        "##нова"
      ],
      [
        "##ющи",
        "##м"
      ],
      [
        "о",
        "##фи"
      ],
      [
        "ин",
        "##ститу"
      ],
      [
        "эк",
        "##с"
      ],
      [
        "смо",
        "##тре"
      ],
      [
        "матери",
        "##а"
      ],
      [
        "х",
        "##и"
      ],
      [
        "ка",
        "##кие"
      ],
      [
        "ре",
        "##али"
      ],
      [
        "##чест",
        "##ве"
      ],
      [
        "ма",
        "##с"
      ],
      [
        "чу",
        "##ть"
      ],
      [
        "име",
        "##ет"
      ],
      [
        "по",
        "##да"
      ],
      [
        "за",
        "##ня"
      ],
      [
        "о",
        "##коло"
      ],
      [
        "##ча",
        "##й"
      ],
      [
        "долж",
        "##ны"
      ],
      [
        "в",
        "##ет"
      ],
      [
        "##ш",
        "##енно"
      ],
      [
        "##ли",
        "##и"
      ],
      [
        "ко",
        "##ло"
      ],
      [
        "пре",
        "##вра"
      ],
      [
        "##овы",
        "##х"
      ],
      [
        "да",
        "##ле"
      ],
      [
        "1",
        "##0"
      ],
      [
        "у",
        "##ж"
      ],
      [
        "##ско",
        "##му"
      ],
      [
        "ви",
        "##ди"
      ],
      [
        "с",
        "##м"
      ],
      [
        "##р",
        "##ения"
      ],
      [
        "##мы",
        "##ш"
      ],
      [
        "на",
        "##блю"
      ],
      [
        "при",
        "##ходи"
      ],
      [
        "вс",
        "##ю"
      ],
      [
        "ста",
        "##ла"
      ],
      [
        "сто",
        "##ит"
      ],
      [
        "##пол",
        "##не"
      ],
      [
        "##ни",
        "##ком"
      ],
      [
        "##при",
        "##я"
      ],
      [
        "##тель",
        "##ность"
      ],
      [
        "у",
        "##прав"
      ],
      [
        "##л",
        "##ово"
      ],
      [
        "##тель",
        "##ство"
      ],
      [
        "##ня",
        "##я"
      ],
      [
        "##ре",
        "##е"
      ],
      [
        "н",
        "##ы"
      ],
      [
        "##л",
        "##ений"
      ],
      [
        "об",
        "##е"
      ],
      [
        "го",
        "##рода"
      ],
      [
        "дру",
        "##га"
      ],
      [
        "##ству",
        "##ет"
      ],
      [
        "##но",
        "##си"
      ],
      [
        "##да",
        "##ния"
      ],
      [
        "за",
        "##щи"
      ],
      [
        "то",
        "##н"
      ],
      [
        "##лен",
        "##ы"
      ],
      [
        "с",
        "##ли"
      ],
      [
        "буд",
        "##то"
      ],
      [
        "Д",
        "##и"
      ],
      [
        "##щ",
        "##ую"
      ],
      [
        "кото",
        "##рое"
      ],
      [
        "ф",
        "##он"
      ],
      [
        "##го",
        "##м"
      ],
      [
        "##та",
        "##м"
      ],
      [
        "По",
        "##сле"
      ],
      [
        "П",
        "##ере"
      ],
      [
        "##та",
        "##я"
      ],
      [
        "те",
        "##о"
      ],
      [
        "уни",
        "##вер"
      ],
      [
        "францу",
        "##з"
      ],
      [
        "раз",
        "##ных"
      ],
      [
        "в",
        "##нут"
      ],
      [
        "т",
        "##во"
      ],
      [
        "го",
        "##ды"
      ],
      [
        "де",
        "##ле"
      ],
      [
        "пря",
        "##мо"
      ],
      [
        "с",
        "##ни"
      ],
      [
        "произ",
        "##вод"
      ],
      [
        "##ро",
        "##н"
      ],
      [
        "пери",
        "##о"
      ],
      [
        "а",
        "##нг"
      ],
      [
        "##ту",
        "##ры"
      ],
      [
        "Пу",
        "##шки"
      ],
      [
        "с",
        "##пра"
      ],
      [
        "от",
        "##дель"
      ],
      [
        "##ло",
        "##г"
      ],
      [
        "##ствен",
        "##но"
      ],
      [
        "##чест",
        "##вен"
      ],
      [
        "ок",
        "##ру"
      ],
      [
        "зо",
        "##ло"
      ],
      [
        "а",
        "##л"
      ],
      [
        "к",
        "##ня"
      ],
      [
        "##ни",
        "##ц"
      ],
      [
        "А",
        "##р"
      ],
      [
        "##е",
        "##де"
      ],
      [
        "##ну",
        "##лась"
      ],
      [
        "дет",
        "##ей"
      ],
      [
        "Е",
        "##го"
      ],
      [
        "на",
        "##се"
      ],
      [
        "про",
        "##дук"
      ],
      [
        "кото",
        "##рую"
      ],
      [
        "П",
        "##ре"
      ],
      [
        "##тель",
        "##ным"
      ],
      [
        "пер",
        "##вый"
      ],
      [
        "е",
        "##вро"
      ],
      [
        "##не",
        "##в"
      ],
      [
        "пов",
        "##ер"
      ],
      [
        "большо",
        "##й"
      ],
      [
        "о",
        "##жи"
      ],
      [
        "##ц",
        "##ов"
      ],
      [
        "ка",
        "##пита"
      ],
      [
        "Ве",
        "##дь"
      ],
      [
        "##кад",
        "##еми"
      ],
      [
        "у",
        "##м"
      ],
      [
        "про",
        "##шло"
      ],
      [
        "вы",
        "##бо"
      ],
      [
        "ру",
        "##б"
      ],
      [
        "а",
        "##мерикан"
      ],
      [
        "##ль",
        "##ку"
      ],
      [
        "пред",
        "##мет"
      ],
      [
        "##лем",
        "##ен"
      ],
      [
        "##ч",
        "##ная"
      ],
      [
        "да",
        "##вно"
      ],
      [
        "##пол",
        "##ни"
      ],
      [
        "ре",
        "##волю"
      ],
      [
        "##ри",
        "##то"
      ],
      [
        "К",
        "##ра"
      ],
      [
        "в",
        "##ну"
      ],
      [
        "##ч",
        "##ное"
      ],
      [
        "##ход",
        "##ят"
      ],
      [
        "З",
        "##на"
      ],
      [
        "со",
        "##держа"
      ],
      [
        "##до",
        "##к"
      ],
      [
        "бо",
        "##рь"
      ],
      [
        "##лы",
        "##х"
      ],
      [
        "ви",
        "##де"
      ],
      [
        "рус",
        "##ского"
      ],
      [
        "кажды",
        "##й"
      ],
      [
        "##в",
        "##ова"
      ],
      [
        "##и",
        "##х"
      ],
      [
        "##г",
        "##ен"
      ],
      [
        "##ля",
        "##р"
      ],
      [
        "об",
        "##на"
      ],
      [
        "воз",
        "##ду"
      ],
      [
        "##ль",
        "##ное"
      ],
      [
        "мен",
        "##ее"
      ],
      [
        "Си",
        "##би"
      ],
      [
        "Вла",
        "##ди"
      ],
      [
        "##б",
        "##ов"
      ],
      [
        "не",
        "##из"
      ],
      [
        "ра",
        "##вно"
      ],
      [
        "лиц",
        "##о"
      ],
      [
        "##мен",
        "##а"
      ],
      [
        "литерату",
        "##ры"
      ],
      [
        "##да",
        "##ли"
      ],
      [
        "##пол",
        "##ня"
      ],
      [
        "по",
        "##ко"
      ],
      [
        "##со",
        "##на"
      ],
      [
        "ко",
        "##ли"
      ],
      [
        "##ст",
        "##ри"
      ],
      [
        "о",
        "##те"
      ],
      [
        "##га",
        "##н"
      ],
      [
        "ме",
        "##ся"
      ],
      [
        "##с",
        "##се"
      ],
      [
        "##то",
        "##го"
      ],
      [
        "по",
        "##ро"
      ],
      [
        "ис",
        "##клю"
      ],
      [
        "То",
        "##лько"
      ],
      [
        "тру",
        "##д"
      ],
      [
        "Г",
        "##ер"
      ],
      [
        "м",
        "##ень"
      ],
      [
        "отно",
        "##ш"
      ],
      [
        "##кла",
        "##ды"
      ],
      [
        "XI",
        "##X"
      ],
      [
        "р",
        "##ес"
      ],
      [
        "си",
        "##м"
      ],
      [
        "язы",
        "##ков"
      ],
      [
        "##та",
        "##х"
      ],
      [
        "зна",
        "##ч"
      ],
      [
        "ак",
        "##тив"
      ],
      [
        "об",
        "##ес"
      ],
      [
        "со",
        "##се"
      ],
      [
        "##бо",
        "##лее"
      ],
      [
        "с",
        "##не"
      ],
      [
        "##лен",
        "##но"
      ],
      [
        "Бо",
        "##ль"
      ],
      [
        "неме",
        "##ц"
      ],
      [
        "а",
        "##нти"
      ],
      [
        "##е",
        "##ди"
      ],
      [
        "чет",
        "##ы"
      ],
      [
        "с",
        "##к"
      ],
      [
        "у",
        "##си"
      ],
      [
        "##б",
        "##ова"
      ],
      [
        "##ля",
        "##ет"
      ],
      [
        "##бу",
        "##р"
      ],
      [
        "говори",
        "##ть"
      ],
      [
        "с",
        "##реди"
      ],
      [
        "у",
        "##твер"
      ],
      [
        "##з",
        "##ей"
      ],
      [
        "##ю",
        "##щее"
      ],
      [
        "за",
        "##кон"
      ],
      [
        "мо",
        "##й"
      ],
      [
        "##ту",
        "##ра"
      ],
      [
        "фи",
        "##нан"
      ],
      [
        "##то",
        "##чно"
      ],
      [
        "ко",
        "##го"
      ],
      [
        "ми",
        "##ре"
      ],
      [
        "ну",
        "##ж"
      ],
      [
        "##СС",
        "##Р"
      ],
      [
        "б",
        "##ли"
      ],
      [
        "кото",
        "##ром"
      ],
      [
        "##лен",
        "##ных"
      ],
      [
        "стра",
        "##не"
      ],
      [
        "##х",
        "##е"
      ],
      [
        "##ст",
        "##ест"
      ],
      [
        "##да",
        "##л"
      ],
      [
        "##ры",
        "##й"
      ],
      [
        "э",
        "##ффек"
      ],
      [
        "XV",
        "##II"
      ],
      [
        "##ш",
        "##ем"
      ],
      [
        "##ч",
        "##то"
      ],
      [
        "##ч",
        "##ей"
      ],
      [
        "К",
        "##он"
      ],
      [
        "д",
        "##емо"
      ],
      [
        "у",
        "##лы"
      ],
      [
        "##ш",
        "##ком"
      ],
      [
        "##по",
        "##мни"
      ],
      [
        "нача",
        "##ла"
      ],
      [
        "сущест",
        "##ву"
      ],
      [
        "продол",
        "##жа"
      ],
      [
        "под",
        "##ня"
      ],
      [
        "ро",
        "##ль"
      ],
      [
        "в",
        "##полне"
      ],
      [
        "о",
        "##ст"
      ],
      [
        "##овы",
        "##е"
      ],
      [
        "спе",
        "##циали"
      ],
      [
        "б",
        "##лиз"
      ],
      [
        "##по",
        "##зи"
      ],
      [
        "##зыва",
        "##ет"
      ],
      [
        "##ча",
        "##ется"
      ],
      [
        "дол",
        "##жно"
      ],
      [
        "кра",
        "##с"
      ],
      [
        "##б",
        "##ер"
      ],
      [
        "та",
        "##ки"
      ],
      [
        "я",
        "##р"
      ],
      [
        "ре",
        "##чь"
      ],
      [
        "па",
        "##ра"
      ],
      [
        "с",
        "##ве"
      ],
      [
        "по",
        "##ме"
      ],
      [
        "##ри",
        "##л"
      ],
      [
        "##из",
        "##нес"
      ],
      [
        "произ",
        "##нес"
      ],
      [
        "совер",
        "##шенно"
      ],
      [
        "н",
        "##ов"
      ],
      [
        "##л",
        "##ета"
      ],
      [
        "##л",
        "##ением"
      ],
      [
        "за",
        "##тем"
      ],
      [
        "##ги",
        "##е"
      ],
      [
        "##ч",
        "##ень"
      ],
      [
        "уча",
        "##ст"
      ],
      [
        "за",
        "##бо"
      ],
      [
        "##чес",
        "##ком"
      ],
      [
        "ско",
        "##ро"
      ],
      [
        "т",
        "##ро"
      ],
      [
        "##и",
        "##ли"
      ],
      [
        "в",
        "##клю"
      ],
      [
        "с",
        "##ча"
      ],
      [
        "##т",
        "##р"
      ],
      [
        "внут",
        "##рен"
      ],
      [
        "##че",
        "##к"
      ],
      [
        "отно",
        "##си"
      ],
      [
        "д",
        "##ы"
      ],
      [
        "д",
        "##ра"
      ],
      [
        "д",
        "##ня"
      ],
      [
        "##ве",
        "##з"
      ],
      [
        "ста",
        "##ри"
      ],
      [
        "тер",
        "##рито"
      ],
      [
        "С",
        "##е"
      ],
      [
        "С",
        "##ССР"
      ],
      [
        "##ли",
        "##т"
      ],
      [
        "##ест",
        "##о"
      ],
      [
        "лю",
        "##бо"
      ],
      [
        "п",
        "##ти"
      ],
      [
        "##в",
        "##шей"
      ],
      [
        "а",
        "##п"
      ],
      [
        "##ч",
        "##ке"
      ],
      [
        "##ди",
        "##я"
      ],
      [
        "##д",
        "##ово"
      ],
      [
        "##н",
        "##ное"
      ],
      [
        "##да",
        "##ет"
      ],
      [
        "со",
        "##бра"
      ],
      [
        "кри",
        "##ти"
      ],
      [
        "по",
        "##зи"
      ],
      [
        "##те",
        "##лем"
      ],
      [
        "##чи",
        "##с"
      ],
      [
        "##ко",
        "##ла"
      ],
      [
        "за",
        "##бы"
      ],
      [
        "испо",
        "##льзова"
      ],
      [
        "на",
        "##ши"
      ],
      [
        "##ди",
        "##л"
      ],
      [
        "во",
        "##к"
      ],
      [
        "сист",
        "##емы"
      ],
      [
        "##рабо",
        "##та"
      ],
      [
        "А",
        "##лё"
      ],
      [
        "Е",
        "##сть"
      ],
      [
        "фи",
        "##зи"
      ],
      [
        "пы",
        "##та"
      ],
      [
        "в",
        "##лия"
      ],
      [
        "ж",
        "##ан"
      ],
      [
        "то",
        "##й"
      ],
      [
        "##то",
        "##ра"
      ],
      [
        "глу",
        "##бо"
      ],
      [
        "со",
        "##труд"
      ],
      [
        "та",
        "##кого"
      ],
      [
        "бу",
        "##ма"
      ],
      [
        "общест",
        "##ва"
      ],
      [
        "за",
        "##кры"
      ],
      [
        "э",
        "##нер"
      ],
      [
        "не",
        "##воз"
      ],
      [
        "то",
        "##чно"
      ],
      [
        "м",
        "##ет"
      ],
      [
        "на",
        "##циональ"
      ],
      [
        "ра",
        "##й"
      ],
      [
        "##га",
        "##ми"
      ],
      [
        "нор",
        "##ма"
      ],
      [
        "п",
        "##ово"
      ],
      [
        "##ова",
        "##я"
      ],
      [
        "ма",
        "##р"
      ],
      [
        "фи",
        "##гу"
      ],
      [
        "Те",
        "##перь"
      ],
      [
        "сер",
        "##ьез"
      ],
      [
        "обы",
        "##чно"
      ],
      [
        "##стви",
        "##я"
      ],
      [
        "произ",
        "##вед"
      ],
      [
        "##пы",
        "##та"
      ],
      [
        "б",
        "##изнес"
      ],
      [
        "##в",
        "##ли"
      ],
      [
        "со",
        "##ставля"
      ],
      [
        "##ша",
        "##ть"
      ],
      [
        "х",
        "##ва"
      ],
      [
        "##ч",
        "##ным"
      ],
      [
        "##па",
        "##ра"
      ],
      [
        "профес",
        "##си"
      ],
      [
        "з",
        "##е"
      ],
      [
        "##на",
        "##д"
      ],
      [
        "случа",
        "##й"
      ],
      [
        "голов",
        "##у"
      ],
      [
        "##ци",
        "##а"
      ],
      [
        "та",
        "##ким"
      ],
      [
        "##мен",
        "##я"
      ],
      [
        "говоря",
        "##т"
      ],
      [
        "##ст",
        "##ру"
      ],
      [
        "##во",
        "##м"
      ],
      [
        "##дца",
        "##ть"
      ],
      [
        "за",
        "##клю"
      ],
      [
        "##ско",
        "##льку"
      ],
      [
        "##хо",
        "##м"
      ],
      [
        "тя",
        "##же"
      ],
      [
        "ни",
        "##ми"
      ],
      [
        "ш",
        "##е"
      ],
      [
        "##ч",
        "##о"
      ],
      [
        "со",
        "##бира"
      ],
      [
        "та",
        "##кая"
      ],
      [
        "кра",
        "##си"
      ],
      [
        "##x",
        "##x"
      ],
      [
        "по",
        "##дума"
      ],
      [
        "##ло",
        "##к"
      ],
      [
        "##ло",
        "##жен"
      ],
      [
        "ста",
        "##р"
      ],
      [
        "свя",
        "##зи"
      ],
      [
        "вне",
        "##ш"
      ],
      [
        "преж",
        "##де"
      ],
      [
        "с",
        "##ере"
      ],
      [
        "ино",
        "##гда"
      ],
      [
        "кра",
        "##й"
      ],
      [
        "новы",
        "##е"
      ],
      [
        "обла",
        "##сти"
      ],
      [
        "Влади",
        "##ми"
      ],
      [
        "о",
        "##со"
      ],
      [
        "По",
        "##ч"
      ],
      [
        "ди",
        "##ре"
      ],
      [
        "д",
        "##ене"
      ],
      [
        "##ст",
        "##рук"
      ],
      [
        "##ста",
        "##нов"
      ],
      [
        "ри",
        "##су"
      ],
      [
        "граж",
        "##дан"
      ],
      [
        "ря",
        "##дом"
      ],
      [
        "ны",
        "##не"
      ],
      [
        "Хо",
        "##ро"
      ],
      [
        "##с",
        "##ю"
      ],
      [
        "ра",
        "##до"
      ],
      [
        "##ча",
        "##ли"
      ],
      [
        "##е",
        "##дин"
      ],
      [
        "вой",
        "##ны"
      ],
      [
        "дере",
        "##в"
      ],
      [
        "б",
        "##ле"
      ],
      [
        "##лож",
        "##ение"
      ],
      [
        "каж",
        "##до"
      ],
      [
        "С",
        "##ейчас"
      ],
      [
        "у",
        "##кра"
      ],
      [
        "по",
        "##й"
      ],
      [
        "##ри",
        "##ан"
      ],
      [
        "не",
        "##боль"
      ],
      [
        "##та",
        "##й"
      ],
      [
        "со",
        "##ба"
      ],
      [
        "про",
        "##да"
      ],
      [
        "М",
        "##у"
      ],
      [
        "##т",
        "##ные"
      ],
      [
        "##ё",
        "##л"
      ],
      [
        "раз",
        "##но"
      ],
      [
        "и",
        "##дет"
      ],
      [
        "##мо",
        "##ж"
      ],
      [
        "хо",
        "##ло"
      ],
      [
        "ин",
        "##тер"
      ],
      [
        "Алек",
        "##са"
      ],
      [
        "д",
        "##ис"
      ],
      [
        "о",
        "##щу"
      ],
      [
        "под",
        "##дер"
      ],
      [
        "##вя",
        "##н"
      ],
      [
        "ско",
        "##лько"
      ],
      [
        "##на",
        "##м"
      ],
      [
        "все",
        "##й"
      ],
      [
        "су",
        "##дь"
      ],
      [
        "испо",
        "##льзу"
      ],
      [
        "пу",
        "##бли"
      ],
      [
        "мест",
        "##е"
      ],
      [
        "п",
        "##ле"
      ],
      [
        "э",
        "##лемен"
      ],
      [
        "##ю",
        "##щая"
      ],
      [
        "##ку",
        "##да"
      ],
      [
        "мы",
        "##с"
      ],
      [
        "обес",
        "##пе"
      ],
      [
        "##ми",
        "##рова"
      ],
      [
        "про",
        "##с"
      ],
      [
        "##ка",
        "##ть"
      ],
      [
        "##ем",
        "##он"
      ],
      [
        "##раж",
        "##ение"
      ],
      [
        "чи",
        "##сле"
      ],
      [
        "окон",
        "##ча"
      ],
      [
        "о",
        "##су"
      ],
      [
        "##д",
        "##ра"
      ],
      [
        "##щи",
        "##м"
      ],
      [
        "государ",
        "##ства"
      ],
      [
        "обо",
        "##зна"
      ],
      [
        "##ше",
        "##д"
      ],
      [
        "четы",
        "##ре"
      ],
      [
        "В",
        "##ер"
      ],
      [
        "эк",
        "##спе"
      ],
      [
        "сист",
        "##ема"
      ],
      [
        "д",
        "##во"
      ],
      [
        "д",
        "##вер"
      ],
      [
        "Алекса",
        "##нд"
      ],
      [
        "у",
        "##жа"
      ],
      [
        "##ми",
        "##и"
      ],
      [
        "##ля",
        "##ется"
      ],
      [
        "##ча",
        "##я"
      ],
      [
        "во",
        "##сто"
      ],
      [
        "ре",
        "##ги"
      ],
      [
        "##пу",
        "##бли"
      ],
      [
        "ма",
        "##стер"
      ],
      [
        "##мы",
        "##е"
      ],
      [
        "тех",
        "##нологи"
      ],
      [
        "По",
        "##том"
      ],
      [
        "##ца",
        "##ми"
      ],
      [
        "кон",
        "##ф"
      ],
      [
        "фи",
        "##ло"
      ],
      [
        "##личи",
        "##е"
      ],
      [
        "о",
        "##де"
      ],
      [
        "##н",
        "##ению"
      ],
      [
        "То",
        "##гда"
      ],
      [
        "у",
        "##диви"
      ],
      [
        "##ми",
        "##ни"
      ],
      [
        "ку",
        "##р"
      ],
      [
        "##пи",
        "##сы"
      ],
      [
        "##пе",
        "##чат"
      ],
      [
        "Д",
        "##у"
      ],
      [
        "т",
        "##ран"
      ],
      [
        "##жа",
        "##ли"
      ],
      [
        "поэ",
        "##тому"
      ],
      [
        "Л",
        "##у"
      ],
      [
        "##с",
        "##лов"
      ],
      [
        "кла",
        "##сси"
      ],
      [
        "тыся",
        "##ч"
      ],
      [
        "п",
        "##си"
      ],
      [
        "##ва",
        "##ния"
      ],
      [
        "рабо",
        "##ту"
      ],
      [
        "долж",
        "##на"
      ],
      [
        "Ф",
        "##ран"
      ],
      [
        "у",
        "##вер"
      ],
      [
        "не",
        "##да"
      ],
      [
        "ру",
        "##ку"
      ],
      [
        "рус",
        "##ской"
      ],
      [
        "##в",
        "##шая"
      ],
      [
        "##н",
        "##та"
      ],
      [
        "##ль",
        "##ным"
      ],
      [
        "самы",
        "##х"
      ],
      [
        "##ля",
        "##ть"
      ],
      [
        "это",
        "##му"
      ],
      [
        "##лу",
        "##й"
      ],
      [
        "голо",
        "##с"
      ],
      [
        "мог",
        "##ли"
      ],
      [
        "по",
        "##сте"
      ],
      [
        "сту",
        "##ден"
      ],
      [
        "в",
        "##ов"
      ],
      [
        "##к",
        "##с"
      ],
      [
        "па",
        "##ль"
      ],
      [
        "универ",
        "##сит"
      ],
      [
        "##п",
        "##ли"
      ],
      [
        "расс",
        "##каза"
      ],
      [
        "к",
        "##ли"
      ],
      [
        "##ч",
        "##ности"
      ],
      [
        "на",
        "##вер"
      ],
      [
        "##ру",
        "##ет"
      ],
      [
        "при",
        "##об"
      ],
      [
        "од",
        "##ну"
      ],
      [
        "само",
        "##го"
      ],
      [
        "Та",
        "##м"
      ],
      [
        "фор",
        "##мы"
      ],
      [
        "в",
        "##за"
      ],
      [
        "##ль",
        "##п"
      ],
      [
        "##чи",
        "##л"
      ],
      [
        "Ве",
        "##ли"
      ],
      [
        "Э",
        "##ти"
      ],
      [
        "е",
        "##стест"
      ],
      [
        "##ла",
        "##я"
      ],
      [
        "тех",
        "##ни"
      ],
      [
        "по",
        "##стро"
      ],
      [
        "ар",
        "##хи"
      ],
      [
        "п",
        "##ят"
      ],
      [
        "у",
        "##би"
      ],
      [
        "##чи",
        "##к"
      ],
      [
        "##б",
        "##ро"
      ],
      [
        "зна",
        "##ю"
      ],
      [
        "произ",
        "##о"
      ],
      [
        "кра",
        "##со"
      ],
      [
        "оп",
        "##ять"
      ],
      [
        "##д",
        "##жет"
      ],
      [
        "##ка",
        "##з"
      ],
      [
        "не",
        "##при"
      ],
      [
        "боль",
        "##шин"
      ],
      [
        "наи",
        "##более"
      ],
      [
        "з",
        "##ло"
      ],
      [
        "п",
        "##овы"
      ],
      [
        "##л",
        "##ению"
      ],
      [
        "##на",
        "##ча"
      ],
      [
        "##ма",
        "##три"
      ],
      [
        "##еде",
        "##ра"
      ],
      [
        "од",
        "##нако"
      ],
      [
        "у",
        "##ве"
      ],
      [
        "по",
        "##ло"
      ],
      [
        "##ет",
        "##ы"
      ],
      [
        "##ва",
        "##лась"
      ],
      [
        "##ски",
        "##ми"
      ],
      [
        "помощ",
        "##ью"
      ],
      [
        "З",
        "##десь"
      ],
      [
        "на",
        "##рода"
      ],
      [
        "##те",
        "##й"
      ],
      [
        "при",
        "##нима"
      ],
      [
        "##хо",
        "##да"
      ],
      [
        "воз",
        "##вра"
      ],
      [
        "дево",
        "##чка"
      ],
      [
        "##ж",
        "##ки"
      ],
      [
        "пер",
        "##вых"
      ],
      [
        "му",
        "##ж"
      ],
      [
        "ко",
        "##ми"
      ],
      [
        "##сто",
        "##м"
      ],
      [
        "ста",
        "##н"
      ],
      [
        "Г",
        "##е"
      ],
      [
        "мы",
        "##сли"
      ],
      [
        "элек",
        "##тро"
      ],
      [
        "у",
        "##ме"
      ],
      [
        "за",
        "##мети"
      ],
      [
        "##ан",
        "##та"
      ],
      [
        "пос",
        "##мотре"
      ],
      [
        "пам",
        "##ят"
      ],
      [
        "##д",
        "##ки"
      ],
      [
        "по",
        "##лови"
      ],
      [
        "но",
        "##чь"
      ],
      [
        "вто",
        "##рой"
      ],
      [
        "##ль",
        "##ная"
      ],
      [
        "органи",
        "##за"
      ],
      [
        "спроси",
        "##л"
      ],
      [
        "##ни",
        "##цу"
      ],
      [
        "культу",
        "##ры"
      ],
      [
        "лег",
        "##ко"
      ],
      [
        "##л",
        "##ка"
      ],
      [
        "воз",
        "##ра"
      ],
      [
        "возможно",
        "##сть"
      ],
      [
        "К",
        "##то"
      ],
      [
        "##л",
        "##н"
      ],
      [
        "гла",
        "##го"
      ],
      [
        "гра",
        "##м"
      ],
      [
        "па",
        "##па"
      ],
      [
        "1",
        "##7"
      ],
      [
        "X",
        "##X"
      ],
      [
        "##ча",
        "##ют"
      ],
      [
        "##чески",
        "##ми"
      ],
      [
        "##ене",
        "##ра"
      ],
      [
        "##д",
        "##ной"
      ],
      [
        "при",
        "##чи"
      ],
      [
        "##ств",
        "##овать"
      ]
    ]
  }
}